{
    "version": "1.0",
    "truncation": null,
    "padding": null,
    "added_tokens": [
        {
            "id": 0,
            "content": "␦",
            "single_word": false,
            "lstrip": false,
            "rstrip": false,
            "normalized": false,
            "special": true
        },
        {
            "id": 1,
            "content": "␂",
            "single_word": false,
            "lstrip": false,
            "rstrip": false,
            "normalized": false,
            "special": true
        },
        {
            "id": 2,
            "content": "␃",
            "single_word": false,
            "lstrip": false,
            "rstrip": false,
            "normalized": false,
            "special": true
        },
        {
            "id": 3,
            "content": "␢",
            "single_word": false,
            "lstrip": false,
            "rstrip": false,
            "normalized": false,
            "special": true
        },
        {
            "id": 4,
            "content": "␥",
            "single_word": false,
            "lstrip": false,
            "rstrip": false,
            "normalized": false,
            "special": true
        },
        {
            "id": 5,
            "content": "␚_0",
            "single_word": false,
            "lstrip": false,
            "rstrip": false,
            "normalized": false,
            "special": true
        },
        {
            "id": 6,
            "content": "␚_1",
            "single_word": false,
            "lstrip": false,
            "rstrip": false,
            "normalized": false,
            "special": true
        },
        {
            "id": 7,
            "content": "␚_2",
            "single_word": false,
            "lstrip": false,
            "rstrip": false,
            "normalized": false,
            "special": true
        },
        {
            "id": 8,
            "content": "␚_3",
            "single_word": false,
            "lstrip": false,
            "rstrip": false,
            "normalized": false,
            "special": true
        },
        {
            "id": 9,
            "content": "␚_4",
            "single_word": false,
            "lstrip": false,
            "rstrip": false,
            "normalized": false,
            "special": true
        },
        {
            "id": 10,
            "content": "␚_5",
            "single_word": false,
            "lstrip": false,
            "rstrip": false,
            "normalized": false,
            "special": true
        },
        {
            "id": 11,
            "content": "␚_6",
            "single_word": false,
            "lstrip": false,
            "rstrip": false,
            "normalized": false,
            "special": true
        },
        {
            "id": 12,
            "content": "␚_7",
            "single_word": false,
            "lstrip": false,
            "rstrip": false,
            "normalized": false,
            "special": true
        },
        {
            "id": 13,
            "content": "␚_8",
            "single_word": false,
            "lstrip": false,
            "rstrip": false,
            "normalized": false,
            "special": true
        },
        {
            "id": 14,
            "content": "␚_9",
            "single_word": false,
            "lstrip": false,
            "rstrip": false,
            "normalized": false,
            "special": true
        },
        {
            "id": 15,
            "content": "␚_10",
            "single_word": false,
            "lstrip": false,
            "rstrip": false,
            "normalized": false,
            "special": true
        }
    ],
    "normalizer": {
        "type": "Sequence",
        "normalizers": [
            {
                "type": "Prepend",
                "prepend": " "
            },
            {
                "type": "NFKC"
            },
            {
                "type": "Replace",
                "pattern": {
                    "Regex": "\n"
                },
                "content": "\n "
            },
            {
                "type": "Replace",
                "pattern": {
                    "Regex": " *\n"
                },
                "content": "\n"
            },
            {
                "type": "Replace",
                "pattern": {
                    "Regex": "\t"
                },
                "content": "    "
            },
            {
                "type": "Replace",
                "pattern": {
                    "Regex": "\n"
                },
                "content": "␤"
            },
            {
                "type": "Replace",
                "pattern": {
                    "Regex": "\\s"
                },
                "content": "␣"
            }
        ]
    },
    "pre_tokenizer": {
        "type": "Sequence",
        "pretokenizers": [
            {
                "type": "Split",
                "pattern": {
                    "Regex": "␤{1}"
                },
                "behavior": "Isolated",
                "invert": false
            },
            {
                "type": "Split",
                "pattern": {
                    "Regex": "␣{1}[^␣␤]+"
                },
                "behavior": "Isolated",
                "invert": false
            },
            {
                "type": "Split",
                "pattern": {
                    "Regex": "␣{0,1}\\d{1}"
                },
                "behavior": "Isolated",
                "invert": false
            },
            {
                "type": "Split",
                "pattern": {
                    "Regex": "␣{0,1}[^\\s␣␤A-Za-z0-9À-ÿĀ-ſḀ-ỿ]{1}"
                },
                "behavior": "Isolated",
                "invert": false
            },
            {
                "type": "Split",
                "pattern": {
                    "Regex": "␣{2,8}"
                },
                "behavior": "Isolated",
                "invert": false
            }
        ]
    },
    "post_processor": {
        "type": "TemplateProcessing",
        "single": [
            {
                "SpecialToken": {
                    "id": "␂",
                    "type_id": 0
                }
            },
            {
                "Sequence": {
                    "id": "A",
                    "type_id": 0
                }
            },
            {
                "SpecialToken": {
                    "id": "␃",
                    "type_id": 0
                }
            }
        ],
        "pair": [
            {
                "SpecialToken": {
                    "id": "␂",
                    "type_id": 0
                }
            },
            {
                "Sequence": {
                    "id": "A",
                    "type_id": 0
                }
            },
            {
                "SpecialToken": {
                    "id": "␃",
                    "type_id": 0
                }
            },
            {
                "Sequence": {
                    "id": "B",
                    "type_id": 0
                }
            },
            {
                "SpecialToken": {
                    "id": "␃",
                    "type_id": 0
                }
            }
        ],
        "special_tokens": {
            "␂": {
                "id": "␂",
                "ids": [
                    1
                ],
                "tokens": [
                    "␂"
                ]
            },
            "␃": {
                "id": "␃",
                "ids": [
                    2
                ],
                "tokens": [
                    "␃"
                ]
            }
        }
    },
    "decoder": {
        "type": "Sequence",
        "decoders": [
            {
                "type": "ByteFallback"
            },
            {
                "type": "Fuse"
            },
            {
                "type": "Strip",
                "content": "␣",
                "start": 1,
                "stop": 0
            },
            {
                "type": "Replace",
                "pattern": {
                    "String": "␤"
                },
                "content": "\n"
            },
            {
                "type": "Replace",
                "pattern": {
                    "String": "␣"
                },
                "content": " "
            },
            {
                "type": "Replace",
                "pattern": {
                    "String": "\n "
                },
                "content": "\n"
            }
        ]
    },
    "model": {
        "type": "BPE",
        "dropout": null,
        "unk_token": "␦",
        "continuing_subword_prefix": null,
        "end_of_word_suffix": null,
        "fuse_unk": true,
        "byte_fallback": true,
        "vocab": {
            "␦": 0,
            "␂": 1,
            "␃": 2,
            "␢": 3,
            "␥": 4,
            "␚_0": 5,
            "␚_1": 6,
            "␚_2": 7,
            "␚_3": 8,
            "␚_4": 9,
            "␚_5": 10,
            "␚_6": 11,
            "␚_7": 12,
            "␚_8": 13,
            "␚_9": 14,
            "␚_10": 15,
            "<0x00>": 16,
            "<0x01>": 17,
            "<0x02>": 18,
            "<0x03>": 19,
            "<0x04>": 20,
            "<0x05>": 21,
            "<0x06>": 22,
            "<0x07>": 23,
            "<0x08>": 24,
            "<0x09>": 25,
            "<0x0A>": 26,
            "<0x0B>": 27,
            "<0x0C>": 28,
            "<0x0D>": 29,
            "<0x0E>": 30,
            "<0x0F>": 31,
            "<0x10>": 32,
            "<0x11>": 33,
            "<0x12>": 34,
            "<0x13>": 35,
            "<0x14>": 36,
            "<0x15>": 37,
            "<0x16>": 38,
            "<0x17>": 39,
            "<0x18>": 40,
            "<0x19>": 41,
            "<0x1A>": 42,
            "<0x1B>": 43,
            "<0x1C>": 44,
            "<0x1D>": 45,
            "<0x1E>": 46,
            "<0x1F>": 47,
            "<0x20>": 48,
            "<0x21>": 49,
            "<0x22>": 50,
            "<0x23>": 51,
            "<0x24>": 52,
            "<0x25>": 53,
            "<0x26>": 54,
            "<0x27>": 55,
            "<0x28>": 56,
            "<0x29>": 57,
            "<0x2A>": 58,
            "<0x2B>": 59,
            "<0x2C>": 60,
            "<0x2D>": 61,
            "<0x2E>": 62,
            "<0x2F>": 63,
            "<0x30>": 64,
            "<0x31>": 65,
            "<0x32>": 66,
            "<0x33>": 67,
            "<0x34>": 68,
            "<0x35>": 69,
            "<0x36>": 70,
            "<0x37>": 71,
            "<0x38>": 72,
            "<0x39>": 73,
            "<0x3A>": 74,
            "<0x3B>": 75,
            "<0x3C>": 76,
            "<0x3D>": 77,
            "<0x3E>": 78,
            "<0x3F>": 79,
            "<0x40>": 80,
            "<0x41>": 81,
            "<0x42>": 82,
            "<0x43>": 83,
            "<0x44>": 84,
            "<0x45>": 85,
            "<0x46>": 86,
            "<0x47>": 87,
            "<0x48>": 88,
            "<0x49>": 89,
            "<0x4A>": 90,
            "<0x4B>": 91,
            "<0x4C>": 92,
            "<0x4D>": 93,
            "<0x4E>": 94,
            "<0x4F>": 95,
            "<0x50>": 96,
            "<0x51>": 97,
            "<0x52>": 98,
            "<0x53>": 99,
            "<0x54>": 100,
            "<0x55>": 101,
            "<0x56>": 102,
            "<0x57>": 103,
            "<0x58>": 104,
            "<0x59>": 105,
            "<0x5A>": 106,
            "<0x5B>": 107,
            "<0x5C>": 108,
            "<0x5D>": 109,
            "<0x5E>": 110,
            "<0x5F>": 111,
            "<0x60>": 112,
            "<0x61>": 113,
            "<0x62>": 114,
            "<0x63>": 115,
            "<0x64>": 116,
            "<0x65>": 117,
            "<0x66>": 118,
            "<0x67>": 119,
            "<0x68>": 120,
            "<0x69>": 121,
            "<0x6A>": 122,
            "<0x6B>": 123,
            "<0x6C>": 124,
            "<0x6D>": 125,
            "<0x6E>": 126,
            "<0x6F>": 127,
            "<0x70>": 128,
            "<0x71>": 129,
            "<0x72>": 130,
            "<0x73>": 131,
            "<0x74>": 132,
            "<0x75>": 133,
            "<0x76>": 134,
            "<0x77>": 135,
            "<0x78>": 136,
            "<0x79>": 137,
            "<0x7A>": 138,
            "<0x7B>": 139,
            "<0x7C>": 140,
            "<0x7D>": 141,
            "<0x7E>": 142,
            "<0x7F>": 143,
            "<0x80>": 144,
            "<0x81>": 145,
            "<0x82>": 146,
            "<0x83>": 147,
            "<0x84>": 148,
            "<0x85>": 149,
            "<0x86>": 150,
            "<0x87>": 151,
            "<0x88>": 152,
            "<0x89>": 153,
            "<0x8A>": 154,
            "<0x8B>": 155,
            "<0x8C>": 156,
            "<0x8D>": 157,
            "<0x8E>": 158,
            "<0x8F>": 159,
            "<0x90>": 160,
            "<0x91>": 161,
            "<0x92>": 162,
            "<0x93>": 163,
            "<0x94>": 164,
            "<0x95>": 165,
            "<0x96>": 166,
            "<0x97>": 167,
            "<0x98>": 168,
            "<0x99>": 169,
            "<0x9A>": 170,
            "<0x9B>": 171,
            "<0x9C>": 172,
            "<0x9D>": 173,
            "<0x9E>": 174,
            "<0x9F>": 175,
            "<0xA0>": 176,
            "<0xA1>": 177,
            "<0xA2>": 178,
            "<0xA3>": 179,
            "<0xA4>": 180,
            "<0xA5>": 181,
            "<0xA6>": 182,
            "<0xA7>": 183,
            "<0xA8>": 184,
            "<0xA9>": 185,
            "<0xAA>": 186,
            "<0xAB>": 187,
            "<0xAC>": 188,
            "<0xAD>": 189,
            "<0xAE>": 190,
            "<0xAF>": 191,
            "<0xB0>": 192,
            "<0xB1>": 193,
            "<0xB2>": 194,
            "<0xB3>": 195,
            "<0xB4>": 196,
            "<0xB5>": 197,
            "<0xB6>": 198,
            "<0xB7>": 199,
            "<0xB8>": 200,
            "<0xB9>": 201,
            "<0xBA>": 202,
            "<0xBB>": 203,
            "<0xBC>": 204,
            "<0xBD>": 205,
            "<0xBE>": 206,
            "<0xBF>": 207,
            "<0xC0>": 208,
            "<0xC1>": 209,
            "<0xC2>": 210,
            "<0xC3>": 211,
            "<0xC4>": 212,
            "<0xC5>": 213,
            "<0xC6>": 214,
            "<0xC7>": 215,
            "<0xC8>": 216,
            "<0xC9>": 217,
            "<0xCA>": 218,
            "<0xCB>": 219,
            "<0xCC>": 220,
            "<0xCD>": 221,
            "<0xCE>": 222,
            "<0xCF>": 223,
            "<0xD0>": 224,
            "<0xD1>": 225,
            "<0xD2>": 226,
            "<0xD3>": 227,
            "<0xD4>": 228,
            "<0xD5>": 229,
            "<0xD6>": 230,
            "<0xD7>": 231,
            "<0xD8>": 232,
            "<0xD9>": 233,
            "<0xDA>": 234,
            "<0xDB>": 235,
            "<0xDC>": 236,
            "<0xDD>": 237,
            "<0xDE>": 238,
            "<0xDF>": 239,
            "<0xE0>": 240,
            "<0xE1>": 241,
            "<0xE2>": 242,
            "<0xE3>": 243,
            "<0xE4>": 244,
            "<0xE5>": 245,
            "<0xE6>": 246,
            "<0xE7>": 247,
            "<0xE8>": 248,
            "<0xE9>": 249,
            "<0xEA>": 250,
            "<0xEB>": 251,
            "<0xEC>": 252,
            "<0xED>": 253,
            "<0xEE>": 254,
            "<0xEF>": 255,
            "<0xF0>": 256,
            "<0xF1>": 257,
            "<0xF2>": 258,
            "<0xF3>": 259,
            "<0xF4>": 260,
            "<0xF5>": 261,
            "<0xF6>": 262,
            "<0xF7>": 263,
            "<0xF8>": 264,
            "<0xF9>": 265,
            "<0xFA>": 266,
            "<0xFB>": 267,
            "<0xFC>": 268,
            "<0xFD>": 269,
            "<0xFE>": 270,
            "<0xFF>": 271,
            "!": 272,
            "\"": 273,
            "#": 274,
            "$": 275,
            "%": 276,
            "&": 277,
            "'": 278,
            "(": 279,
            ")": 280,
            "*": 281,
            "+": 282,
            ",": 283,
            "-": 284,
            ".": 285,
            "/": 286,
            "0": 287,
            "1": 288,
            "2": 289,
            "3": 290,
            "4": 291,
            "5": 292,
            "6": 293,
            "7": 294,
            "8": 295,
            "9": 296,
            ":": 297,
            ";": 298,
            "<": 299,
            "=": 300,
            ">": 301,
            "?": 302,
            "@": 303,
            "A": 304,
            "B": 305,
            "C": 306,
            "D": 307,
            "E": 308,
            "F": 309,
            "G": 310,
            "H": 311,
            "I": 312,
            "J": 313,
            "K": 314,
            "L": 315,
            "M": 316,
            "N": 317,
            "O": 318,
            "P": 319,
            "Q": 320,
            "R": 321,
            "S": 322,
            "T": 323,
            "U": 324,
            "V": 325,
            "W": 326,
            "X": 327,
            "Y": 328,
            "Z": 329,
            "[": 330,
            "\\": 331,
            "]": 332,
            "^": 333,
            "_": 334,
            "`": 335,
            "a": 336,
            "b": 337,
            "c": 338,
            "d": 339,
            "e": 340,
            "f": 341,
            "g": 342,
            "h": 343,
            "i": 344,
            "j": 345,
            "k": 346,
            "l": 347,
            "m": 348,
            "n": 349,
            "o": 350,
            "p": 351,
            "q": 352,
            "r": 353,
            "s": 354,
            "t": 355,
            "u": 356,
            "v": 357,
            "w": 358,
            "x": 359,
            "y": 360,
            "z": 361,
            "{": 362,
            "|": 363,
            "}": 364,
            "~": 365,
            "": 366,
            "": 367,
            "": 368,
            "": 369,
            "": 370,
            "": 371,
            "": 372,
            "": 373,
            "": 374,
            "": 375,
            "": 376,
            "": 377,
            "": 378,
            "": 379,
            "": 380,
            "": 381,
            "": 382,
            "": 383,
            "": 384,
            "": 385,
            "": 386,
            "": 387,
            "": 388,
            "": 389,
            "": 390,
            "": 391,
            "¡": 392,
            "¢": 393,
            "£": 394,
            "¤": 395,
            "¥": 396,
            "¦": 397,
            "§": 398,
            "¨": 399,
            "©": 400,
            "ª": 401,
            "«": 402,
            "¬": 403,
            "­": 404,
            "®": 405,
            "¯": 406,
            "°": 407,
            "±": 408,
            "²": 409,
            "³": 410,
            "´": 411,
            "µ": 412,
            "¶": 413,
            "·": 414,
            "¸": 415,
            "¹": 416,
            "º": 417,
            "»": 418,
            "¼": 419,
            "½": 420,
            "¾": 421,
            "¿": 422,
            "À": 423,
            "Á": 424,
            "Â": 425,
            "Ã": 426,
            "Ä": 427,
            "Å": 428,
            "Æ": 429,
            "Ç": 430,
            "È": 431,
            "É": 432,
            "Ê": 433,
            "Ë": 434,
            "Ì": 435,
            "Í": 436,
            "Î": 437,
            "Ï": 438,
            "Ð": 439,
            "Ñ": 440,
            "Ò": 441,
            "Ó": 442,
            "Ô": 443,
            "Õ": 444,
            "Ö": 445,
            "×": 446,
            "Ø": 447,
            "Ù": 448,
            "Ú": 449,
            "Û": 450,
            "Ü": 451,
            "Ý": 452,
            "Þ": 453,
            "ß": 454,
            "à": 455,
            "á": 456,
            "â": 457,
            "ã": 458,
            "ä": 459,
            "å": 460,
            "æ": 461,
            "ç": 462,
            "è": 463,
            "é": 464,
            "ê": 465,
            "ë": 466,
            "ì": 467,
            "í": 468,
            "î": 469,
            "ï": 470,
            "ð": 471,
            "ñ": 472,
            "ò": 473,
            "ó": 474,
            "ô": 475,
            "õ": 476,
            "ö": 477,
            "÷": 478,
            "ø": 479,
            "ù": 480,
            "ú": 481,
            "û": 482,
            "ü": 483,
            "ý": 484,
            "þ": 485,
            "ÿ": 486,
            "Ā": 487,
            "ā": 488,
            "Ă": 489,
            "ă": 490,
            "Ą": 491,
            "ą": 492,
            "Ć": 493,
            "ć": 494,
            "Ĉ": 495,
            "ĉ": 496,
            "Ċ": 497,
            "ċ": 498,
            "Č": 499,
            "č": 500,
            "Ď": 501,
            "ď": 502,
            "Đ": 503,
            "đ": 504,
            "Ē": 505,
            "ē": 506,
            "Ĕ": 507,
            "ĕ": 508,
            "Ė": 509,
            "ė": 510,
            "Ę": 511,
            "ę": 512,
            "Ě": 513,
            "ě": 514,
            "Ĝ": 515,
            "ĝ": 516,
            "Ğ": 517,
            "ğ": 518,
            "Ġ": 519,
            "ġ": 520,
            "Ģ": 521,
            "ģ": 522,
            "Ĥ": 523,
            "ĥ": 524,
            "Ħ": 525,
            "ħ": 526,
            "Ĩ": 527,
            "ĩ": 528,
            "Ī": 529,
            "ī": 530,
            "Ĭ": 531,
            "ĭ": 532,
            "Į": 533,
            "į": 534,
            "İ": 535,
            "ı": 536,
            "Ĳ": 537,
            "ĳ": 538,
            "Ĵ": 539,
            "ĵ": 540,
            "Ķ": 541,
            "ķ": 542,
            "ĸ": 543,
            "Ĺ": 544,
            "ĺ": 545,
            "Ļ": 546,
            "ļ": 547,
            "Ľ": 548,
            "ľ": 549,
            "Ŀ": 550,
            "ŀ": 551,
            "Ł": 552,
            "ł": 553,
            "Ń": 554,
            "ń": 555,
            "ņ": 556,
            "ň": 557,
            "ŋ": 558,
            "Ō": 559,
            "ō": 560,
            "ŏ": 561,
            "Ő": 562,
            "ő": 563,
            "Œ": 564,
            "œ": 565,
            "ŕ": 566,
            "ŗ": 567,
            "Ř": 568,
            "ř": 569,
            "Ś": 570,
            "ś": 571,
            "Ŝ": 572,
            "ŝ": 573,
            "Ş": 574,
            "ş": 575,
            "Š": 576,
            "š": 577,
            "Ţ": 578,
            "ţ": 579,
            "Ť": 580,
            "ť": 581,
            "Ŧ": 582,
            "ũ": 583,
            "Ū": 584,
            "ū": 585,
            "ŭ": 586,
            "ů": 587,
            "ű": 588,
            "ų": 589,
            "ŵ": 590,
            "ŷ": 591,
            "Ÿ": 592,
            "Ź": 593,
            "ź": 594,
            "Ż": 595,
            "ż": 596,
            "Ž": 597,
            "ž": 598,
            "Ƅ": 599,
            "Ƌ": 600,
            "ƌ": 601,
            "Ǝ": 602,
            "Ə": 603,
            "Ƒ": 604,
            "ƒ": 605,
            "ơ": 606,
            "ư": 607,
            "ƿ": 608,
            "ǁ": 609,
            "ǂ": 610,
            "ǃ": 611,
            "ǎ": 612,
            "ǐ": 613,
            "ǒ": 614,
            "ǔ": 615,
            "ǚ": 616,
            "ǝ": 617,
            "ǣ": 618,
            "Ǧ": 619,
            "ǧ": 620,
            "ǩ": 621,
            "ǫ": 622,
            "ǵ": 623,
            "ǹ": 624,
            "ȁ": 625,
            "ȃ": 626,
            "Ș": 627,
            "ș": 628,
            "Ț": 629,
            "ț": 630,
            "Ȝ": 631,
            "ȝ": 632,
            "ȧ": 633,
            "Ɂ": 634,
            "ɂ": 635,
            "ɐ": 636,
            "ɑ": 637,
            "ɒ": 638,
            "ɔ": 639,
            "ɕ": 640,
            "ɖ": 641,
            "ɗ": 642,
            "ɘ": 643,
            "ə": 644,
            "ɛ": 645,
            "ɜ": 646,
            "ɝ": 647,
            "ɟ": 648,
            "ɡ": 649,
            "ɣ": 650,
            "ɥ": 651,
            "ɦ": 652,
            "ɨ": 653,
            "ɩ": 654,
            "ɪ": 655,
            "ɫ": 656,
            "ɮ": 657,
            "ɯ": 658,
            "ɲ": 659,
            "ɳ": 660,
            "ɶ": 661,
            "ɷ": 662,
            "ɸ": 663,
            "ɹ": 664,
            "ɺ": 665,
            "ɾ": 666,
            "ʁ": 667,
            "ʂ": 668,
            "ʃ": 669,
            "ʇ": 670,
            "ʈ": 671,
            "ʊ": 672,
            "ʋ": 673,
            "ʌ": 674,
            "ʎ": 675,
            "ʏ": 676,
            "ʐ": 677,
            "ʑ": 678,
            "ʒ": 679,
            "ʔ": 680,
            "ʕ": 681,
            "ʘ": 682,
            "ʙ": 683,
            "ʝ": 684,
            "ʟ": 685,
            "ʧ": 686,
            "ʹ": 687,
            "ʻ": 688,
            "ʼ": 689,
            "ʽ": 690,
            "ʾ": 691,
            "ʿ": 692,
            "ˀ": 693,
            "ˆ": 694,
            "ˇ": 695,
            "ˈ": 696,
            "ˊ": 697,
            "ˋ": 698,
            "ˌ": 699,
            "ː": 700,
            "˥": 701,
            "˦": 702,
            "˧": 703,
            "˨": 704,
            "˩": 705,
            "־": 706,
            "״": 707,
            "،": 708,
            "؟": 709,
            "ـ": 710,
            "١": 711,
            "٢": 712,
            "٤": 713,
            "٥": 714,
            "٦": 715,
            "٧": 716,
            "٨": 717,
            "٩": 718,
            "۞": 719,
            "۰": 720,
            "।": 721,
            "॥": 722,
            "०": 723,
            "१": 724,
            "२": 725,
            "३": 726,
            "४": 727,
            "५": 728,
            "६": 729,
            "७": 730,
            "८": 731,
            "९": 732,
            "་": 733,
            "།": 734,
            "၀": 735,
            "၁": 736,
            "၂": 737,
            "၃": 738,
            "၄": 739,
            "၅": 740,
            "၆": 741,
            "၇": 742,
            "၈": 743,
            "၉": 744,
            "᚛": 745,
            "᚜": 746,
            "០": 747,
            "១": 748,
            "២": 749,
            "៣": 750,
            "៤": 751,
            "៥": 752,
            "៦": 753,
            "៧": 754,
            "៨": 755,
            "៩": 756,
            "ḋ": 757,
            "Ḍ": 758,
            "ḍ": 759,
            "ḏ": 760,
            "ḗ": 761,
            "Ḡ": 762,
            "Ḥ": 763,
            "ḥ": 764,
            "Ḩ": 765,
            "ḫ": 766,
            "ḱ": 767,
            "ḵ": 768,
            "ḷ": 769,
            "ḻ": 770,
            "ḿ": 771,
            "ṁ": 772,
            "Ṃ": 773,
            "ṃ": 774,
            "ṅ": 775,
            "ṇ": 776,
            "ṉ": 777,
            "ṓ": 778,
            "ṗ": 779,
            "ṙ": 780,
            "ṛ": 781,
            "ṟ": 782,
            "Ṣ": 783,
            "ṣ": 784,
            "ṫ": 785,
            "Ṭ": 786,
            "ṭ": 787,
            "Ṯ": 788,
            "ṯ": 789,
            "Ṳ": 790,
            "ṹ": 791,
            "ẏ": 792,
            "Ẓ": 793,
            "ẓ": 794,
            "ẞ": 795,
            "ạ": 796,
            "ả": 797,
            "ấ": 798,
            "ầ": 799,
            "ẩ": 800,
            "ậ": 801,
            "ắ": 802,
            "ằ": 803,
            "ẵ": 804,
            "ặ": 805,
            "Ẹ": 806,
            "ẹ": 807,
            "ẻ": 808,
            "ẽ": 809,
            "Ế": 810,
            "ế": 811,
            "ề": 812,
            "ể": 813,
            "ễ": 814,
            "ệ": 815,
            "ỉ": 816,
            "ị": 817,
            "Ọ": 818,
            "ọ": 819,
            "ỏ": 820,
            "ố": 821,
            "ồ": 822,
            "ổ": 823,
            "ỗ": 824,
            "ộ": 825,
            "ớ": 826,
            "ờ": 827,
            "ở": 828,
            "ợ": 829,
            "ụ": 830,
            "ủ": 831,
            "ứ": 832,
            "ử": 833,
            "ữ": 834,
            "ự": 835,
            "ỳ": 836,
            "ỹ": 837,
            "​": 838,
            "‌": 839,
            "‍": 840,
            "‎": 841,
            "‏": 842,
            "‐": 843,
            "–": 844,
            "—": 845,
            "―": 846,
            "‖": 847,
            "‘": 848,
            "’": 849,
            "‚": 850,
            "“": 851,
            "”": 852,
            "„": 853,
            "†": 854,
            "‡": 855,
            "•": 856,
            "‬": 857,
            "‭": 858,
            "‰": 859,
            "′": 860,
            "※": 861,
            "‿": 862,
            "⁂": 863,
            "⁄": 864,
            "⁎": 865,
            "⁠": 866,
            "⁣": 867,
            "₡": 868,
            "₣": 869,
            "₤": 870,
            "₩": 871,
            "€": 872,
            "₱": 873,
            "₵": 874,
            "₹": 875,
            "₿": 876,
            "↊": 877,
            "↋": 878,
            "←": 879,
            "↑": 880,
            "→": 881,
            "↗": 882,
            "↫": 883,
            "∂": 884,
            "∆": 885,
            "∇": 886,
            "∈": 887,
            "∉": 888,
            "−": 889,
            "∗": 890,
            "∘": 891,
            "∙": 892,
            "√": 893,
            "∝": 894,
            "∞": 895,
            "∴": 896,
            "∼": 897,
            "≈": 898,
            "≒": 899,
            "≠": 900,
            "≡": 901,
            "≤": 902,
            "≥": 903,
            "⊙": 904,
            "⋅": 905,
            "⌈": 906,
            "⌉": 907,
            "⌊": 908,
            "⌋": 909,
            "␣": 910,
            "␤": 911,
            "─": 912,
            "█": 913,
            "▔": 914,
            "▼": 915,
            "◉": 916,
            "◊": 917,
            "○": 918,
            "●": 919,
            "☃": 920,
            "★": 921,
            "☆": 922,
            "☉": 923,
            "☐": 924,
            "☚": 925,
            "☛": 926,
            "☣": 927,
            "☭": 928,
            "☯": 929,
            "☺": 930,
            "☻": 931,
            "♄": 932,
            "♑": 933,
            "♒": 934,
            "♠": 935,
            "♡": 936,
            "♣": 937,
            "♥": 938,
            "♦": 939,
            "♪": 940,
            "♫": 941,
            "♭": 942,
            "♮": 943,
            "♯": 944,
            "✅": 945,
            "✙": 946,
            "✚": 947,
            "✡": 948,
            "✿": 949,
            "❌": 950,
            "❤": 951,
            "❦": 952,
            "⟨": 953,
            "⟩": 954,
            "⬄": 955,
            "⬱": 956,
            "ⱡ": 957,
            "⿰": 958,
            "⿱": 959,
            "⿺": 960,
            "、": 961,
            "。": 962,
            "〉": 963,
            "《": 964,
            "》": 965,
            "「": 966,
            "」": 967,
            "『": 968,
            "』": 969,
            "〜": 970,
            "・": 971,
            "ー": 972,
            "Ꜧ": 973,
            "ꜧ": 974,
            "꞉": 975,
            "ꞌ": 976,
            "ꞯ": 977,
            "": 978,
            "": 979,
            "": 980,
            "﻿": 981,
            "￼": 982,
            "�": 983,
            "𝄆": 984,
            "𝄇": 985,
            "🆖": 986,
            "🏰": 987,
            "🏴": 988,
            "👫": 989,
            "👽": 990,
            "😊": 991,
            "😝": 992,
            "🜨": 993,
            "󠁢": 994,
            "󠁧": 995,
            "󠁬": 996,
            "󠁳": 997,
            "󠁷": 998,
            "󠁿": 999,
            "􏿾": 1000,
            "␣t": 1001,
            "he": 1002,
            "␣a": 1003,
            "in": 1004,
            "␣w": 1005,
            "␣the": 1006,
            "ou": 1007,
            "␣s": 1008,
            "re": 1009,
            "␣o": 1010,
            "ha": 1011,
            "er": 1012,
            "nd": 1013,
            "␣b": 1014,
            "it": 1015,
            "is": 1016,
            "␣c": 1017,
            "␣m": 1018,
            "␣y": 1019,
            "␣d": 1020,
            "on": 1021,
            "ing": 1022,
            "␣f": 1023,
            "ll": 1024,
            "␣to": 1025,
            "OT": 1026,
            "MOT": 1027,
            "␣you": 1028,
            "an": 1029,
            "ed": 1030,
            "es": 1031,
            "or": 1032,
            "␣p": 1033,
            "hat": 1034,
            "␣g": 1035,
            "en": 1036,
            "␣l": 1037,
            "CH": 1038,
            "␣and": 1039,
            "CHI": 1040,
            "␣n": 1041,
            "ar": 1042,
            "␣I": 1043,
            "␣of": 1044,
            "as": 1045,
            "␣in": 1046,
            "at": 1047,
            "␣he": 1048,
            "om": 1049,
            "ow": 1050,
            "␣h": 1051,
            "␣it": 1052,
            "ot": 1053,
            "␣ha": 1054,
            "et": 1055,
            "le": 1056,
            "␣that": 1057,
            "ve": 1058,
            "␣th": 1059,
            "ay": 1060,
            "␣on": 1061,
            "ic": 1062,
            "us": 1063,
            "gh": 1064,
            "␣be": 1065,
            "id": 1066,
            "␣is": 1067,
            "␣we": 1068,
            "␣e": 1069,
            "ld": 1070,
            "ut": 1071,
            "oo": 1072,
            "al": 1073,
            "␣was": 1074,
            "im": 1075,
            "ac": 1076,
            "ke": 1077,
            "ad": 1078,
            "␣do": 1079,
            "ver": 1080,
            "␣re": 1081,
            "␣r": 1082,
            "␣u": 1083,
            "ir": 1084,
            "ght": 1085,
            "␣for": 1086,
            "se": 1087,
            "nI": 1088,
            "ly": 1089,
            "␣st": 1090,
            "ent": 1091,
            "am": 1092,
            "ion": 1093,
            "␣T": 1094,
            "␣=": 1095,
            "out": 1096,
            "␣S": 1097,
            "␣M": 1098,
            "st": 1099,
            "␣k": 1100,
            "ith": 1101,
            "␣me": 1102,
            "ight": 1103,
            "ea": 1104,
            "␣A": 1105,
            "␣an": 1106,
            "␣what": 1107,
            "␣with": 1108,
            "her": 1109,
            "␣wh": 1110,
            "ur": 1111,
            "ome": 1112,
            "␣go": 1113,
            "␣se": 1114,
            "all": 1115,
            "nT": 1116,
            "␣as": 1117,
            "ill": 1118,
            "␣C": 1119,
            "ch": 1120,
            "␣not": 1121,
            "␣this": 1122,
            "␣B": 1123,
            "␣at": 1124,
            "ter": 1125,
            "␣li": 1126,
            "ould": 1127,
            "␣have": 1128,
            "ro": 1129,
            "␣are": 1130,
            "␣no": 1131,
            "ce": 1132,
            "␣H": 1133,
            "␣kn": 1134,
            "␣there": 1135,
            "ie": 1136,
            "ook": 1137,
            "␣they": 1138,
            "␣can": 1139,
            "if": 1140,
            "nA": 1141,
            "nW": 1142,
            "il": 1143,
            "ust": 1144,
            "␣his": 1145,
            "␣one": 1146,
            "ant": 1147,
            "un": 1148,
            "␣whe": 1149,
            "ain": 1150,
            "ct": 1151,
            "␣fr": 1152,
            "␣so": 1153,
            "␣j": 1154,
            "␣know": 1155,
            "␣up": 1156,
            "op": 1157,
            "␣she": 1158,
            "␣don": 1159,
            "␣her": 1160,
            "and": 1161,
            "eah": 1162,
            "␣your": 1163,
            "xx": 1164,
            "um": 1165,
            "␣\\": 1166,
            "ell": 1167,
            "nY": 1168,
            "ore": 1169,
            "␣ne": 1170,
            "␣[": 1171,
            "␣all": 1172,
            "␣P": 1173,
            "␣had": 1174,
            "IN": 1175,
            "␣my": 1176,
            "ge": 1177,
            "␣sh": 1178,
            "pp": 1179,
            "␣D": 1180,
            "our": 1181,
            "␣W": 1182,
            "␣sa": 1183,
            "␣but": 1184,
            "␣like": 1185,
            "ri": 1186,
            "ab": 1187,
            "ack": 1188,
            "␣out": 1189,
            "␣The": 1190,
            "el": 1191,
            "ood": 1192,
            "␣1": 1193,
            "INV": 1194,
            "art": 1195,
            "ol": 1196,
            "␣him": 1197,
            "ul": 1198,
            "␣pl": 1199,
            "␣get": 1200,
            "ink": 1201,
            "ig": 1202,
            "␣al": 1203,
            "nThe": 1204,
            "␣G": 1205,
            "ry": 1206,
            "ck": 1207,
            "ake": 1208,
            "AT": 1209,
            "␣ab": 1210,
            "␣from": 1211,
            "␣de": 1212,
            "th": 1213,
            "␣look": 1214,
            "␣see": 1215,
            "␣did": 1216,
            "red": 1217,
            "␣J": 1218,
            "␣F": 1219,
            "ers": 1220,
            "nt": 1221,
            "␣or": 1222,
            "␣L": 1223,
            "very": 1224,
            "nS": 1225,
            "ation": 1226,
            "␣were": 1227,
            "␣R": 1228,
            "ound": 1229,
            "␣here": 1230,
            "␣N": 1231,
            "␣oh": 1232,
            "ess": 1233,
            "nH": 1234,
            "␣by": 1235,
            "est": 1236,
            "␣yeah": 1237,
            "nB": 1238,
            "␣su": 1239,
            "ra": 1240,
            "ist": 1241,
            "qu": 1242,
            "han": 1243,
            "ard": 1244,
            "ind": 1245,
            "ame": 1246,
            "␣them": 1247,
            "os": 1248,
            "own": 1249,
            "ong": 1250,
            "itt": 1251,
            "FAT": 1252,
            "␣some": 1253,
            "␣got": 1254,
            "na": 1255,
            "one": 1256,
            "ak": 1257,
            "␣com": 1258,
            "␣who": 1259,
            "␣just": 1260,
            "use": 1261,
            "␣think": 1262,
            "ast": 1263,
            "␣about": 1264,
            "␣sp": 1265,
            "␣want": 1266,
            "␣wor": 1267,
            "␣E": 1268,
            "␣right": 1269,
            "res": 1270,
            "␣2": 1271,
            "ive": 1272,
            "ally": 1273,
            "␣said": 1274,
            "␣now": 1275,
            "ep": 1276,
            "em": 1277,
            "␣would": 1278,
            "␣v": 1279,
            "ap": 1280,
            "␣if": 1281,
            "ick": 1282,
            "ice": 1283,
            "␣bo": 1284,
            "nYou": 1285,
            "nO": 1286,
            "␣then": 1287,
            "␣when": 1288,
            "ate": 1289,
            "␣O": 1290,
            "␣ex": 1291,
            "␣con": 1292,
            "␣man": 1293,
            "ber": 1294,
            "␣tw": 1295,
            "ough": 1296,
            "␣any": 1297,
            "␣say": 1298,
            "ime": 1299,
            "ich": 1300,
            "ort": 1301,
            "xxx": 1302,
            "␣xxx": 1303,
            "ine": 1304,
            "␣us": 1305,
            "␣put": 1306,
            "hing": 1307,
            "od": 1308,
            "ven": 1309,
            "fe": 1310,
            "kay": 1311,
            "other": 1312,
            "␣tr": 1313,
            "ide": 1314,
            "␣will": 1315,
            "␣(": 1316,
            "␣where": 1317,
            "hi": 1318,
            "nN": 1319,
            "ittle": 1320,
            "ag": 1321,
            "␣down": 1322,
            "ear": 1323,
            "␣int": 1324,
            "␣good": 1325,
            "ies": 1326,
            "ous": 1327,
            "ther": 1328,
            "nM": 1329,
            "␣back": 1330,
            "ca": 1331,
            "␣little": 1332,
            "␣ag": 1333,
            "way": 1334,
            "au": 1335,
            "␣cl": 1336,
            "␣pro": 1337,
            "␣He": 1338,
            "ost": 1339,
            "␣going": 1340,
            "ose": 1341,
            "␣br": 1342,
            "␣been": 1343,
            "␣more": 1344,
            "␣could": 1345,
            "␣well": 1346,
            "␣time": 1347,
            "␣has": 1348,
            "␣over": 1349,
            "␣ar": 1350,
            "␣come": 1351,
            "␣off": 1352,
            "␣which": 1353,
            "␣very": 1354,
            "␣their": 1355,
            "␣It": 1356,
            "ace": 1357,
            "␣'": 1358,
            "␣two": 1359,
            "␣too": 1360,
            "␣Y": 1361,
            "␣pe": 1362,
            "lf": 1363,
            "ity": 1364,
            "␣okay": 1365,
            "␣K": 1366,
            "ove": 1367,
            "cause": 1368,
            "nIt": 1369,
            "ree": 1370,
            "ite": 1371,
            "␣how": 1372,
            "␣other": 1373,
            "␣\"": 1374,
            "␣qu": 1375,
            "␣play": 1376,
            "␣gr": 1377,
            "ish": 1378,
            "␣le": 1379,
            "ure": 1380,
            "␣bl": 1381,
            "␣fe": 1382,
            "␣af": 1383,
            "are": 1384,
            "␣let": 1385,
            "ings": 1386,
            "nD": 1387,
            "ond": 1388,
            "ud": 1389,
            "␣yes": 1390,
            "alk": 1391,
            "my": 1392,
            "nC": 1393,
            "ft": 1394,
            "reat": 1395,
            "␣than": 1396,
            "orn": 1397,
            "urn": 1398,
            "ue": 1399,
            "nHe": 1400,
            "␣ro": 1401,
            "age": 1402,
            "␣U": 1403,
            "hed": 1404,
            "omet": 1405,
            "␣does": 1406,
            "␣into": 1407,
            "ment": 1408,
            "ian": 1409,
            "ought": 1410,
            "onna": 1411,
            "pl": 1412,
            "ople": 1413,
            "AR": 1414,
            "ty": 1415,
            "␣again": 1416,
            "ass": 1417,
            "␣er": 1418,
            "pe": 1419,
            "irst": 1420,
            "iv": 1421,
            "␣gonna": 1422,
            "␣way": 1423,
            "nWhat": 1424,
            "␣make": 1425,
            "ade": 1426,
            "ia": 1427,
            "nAnd": 1428,
            "uck": 1429,
            "ire": 1430,
            "ps": 1431,
            "ble": 1432,
            "␣en": 1433,
            "add": 1434,
            "ater": 1435,
            "␣people": 1436,
            "␣somet": 1437,
            "ase": 1438,
            "␣take": 1439,
            "␣sha": 1440,
            "␣tell": 1441,
            "␣work": 1442,
            "ary": 1443,
            "ne": 1444,
            "␣pr": 1445,
            "ount": 1446,
            "␣call": 1447,
            "iss": 1448,
            "␣co": 1449,
            "␣car": 1450,
            "␣fl": 1451,
            "nL": 1452,
            "␣day": 1453,
            "␣St": 1454,
            "ov": 1455,
            "int": 1456,
            "ng": 1457,
            "␣first": 1458,
            "␣am": 1459,
            "ci": 1460,
            "pt": 1461,
            "␣hand": 1462,
            "␣uh": 1463,
            "per": 1464,
            "␣need": 1465,
            "ys": 1466,
            "␣after": 1467,
            "ran": 1468,
            "ull": 1469,
            "ord": 1470,
            "nder": 1471,
            "␣mean": 1472,
            "ise": 1473,
            "␣because": 1474,
            "␣thr": 1475,
            "his": 1476,
            "uch": 1477,
            "uh": 1478,
            "so": 1479,
            "␣part": 1480,
            "␣bet": 1481,
            "self": 1482,
            "␣ch": 1483,
            "fore": 1484,
            "␣only": 1485,
            "␣should": 1486,
            "we": 1487,
            "wn": 1488,
            "␣our": 1489,
            "ob": 1490,
            "mer": 1491,
            "nG": 1492,
            "ff": 1493,
            "act": 1494,
            "␣every": 1495,
            "␣te": 1496,
            "ather": 1497,
            "ark": 1498,
            "ouse": 1499,
            "ub": 1500,
            "iz": 1501,
            "ach": 1502,
            "av": 1503,
            "␣these": 1504,
            "ock": 1505,
            "␣un": 1506,
            "␣didn": 1507,
            "␣big": 1508,
            "␣cha": 1509,
            "augh": 1510,
            "nYeah": 1511,
            "␣much": 1512,
            "nWe": 1513,
            "nNo": 1514,
            "ress": 1515,
            "␣pre": 1516,
            "able": 1517,
            "les": 1518,
            "␣made": 1519,
            "␣something": 1520,
            "␣happ": 1521,
            "ool": 1522,
            "ady": 1523,
            "nOh": 1524,
            "ren": 1525,
            "␣really": 1526,
            "␣sm": 1527,
            "ile": 1528,
            "irl": 1529,
            "thing": 1530,
            "␣ad": 1531,
            "old": 1532,
            "␣year": 1533,
            "ting": 1534,
            "␣gu": 1535,
            "man": 1536,
            "␣long": 1537,
            "nE": 1538,
            "␣chi": 1539,
            "ied": 1540,
            "og": 1541,
            "oc": 1542,
            "hes": 1543,
            "␣why": 1544,
            "␣dis": 1545,
            "␣po": 1546,
            "te": 1547,
            "be": 1548,
            "ny": 1549,
            "day": 1550,
            "cl": 1551,
            "␣away": 1552,
            "␣“": 1553,
            "anna": 1554,
            "ated": 1555,
            "nP": 1556,
            "ory": 1557,
            "␣talk": 1558,
            "␣before": 1559,
            "ew": 1560,
            "␣ke": 1561,
            "␣went": 1562,
            "␣sc": 1563,
            "ict": 1564,
            "ions": 1565,
            "␣may": 1566,
            "hy": 1567,
            "␣under": 1568,
            "hen": 1569,
            "␣V": 1570,
            "ang": 1571,
            "␣Mr": 1572,
            "cc": 1573,
            "␣rem": 1574,
            "␣wr": 1575,
            "nThat": 1576,
            "␣cr": 1577,
            "ence": 1578,
            "␣wanna": 1579,
            "␣girl": 1580,
            "␣im": 1581,
            "nF": 1582,
            "ving": 1583,
            "␣old": 1584,
            "␣three": 1585,
            "␣sec": 1586,
            "␣um": 1587,
            "nBut": 1588,
            "␣hel": 1589,
            "ix": 1590,
            "ward": 1591,
            "␣turn": 1592,
            "oll": 1593,
            "␣those": 1594,
            "PAR": 1595,
            "␣In": 1596,
            "ip": 1597,
            "␣doing": 1598,
            "␣child": 1599,
            "␣came": 1600,
            "here": 1601,
            "␣app": 1602,
            "iend": 1603,
            "␣also": 1604,
            "␣eat": 1605,
            "atch": 1606,
            "␣never": 1607,
            "␣ask": 1608,
            "tain": 1609,
            "␣act": 1610,
            "ful": 1611,
            "␣bab": 1612,
            "␣home": 1613,
            "␣thought": 1614,
            "␣head": 1615,
            "␣per": 1616,
            "nR": 1617,
            "gg": 1618,
            "pen": 1619,
            "hm": 1620,
            "ons": 1621,
            "␣another": 1622,
            "␣house": 1623,
            "ors": 1624,
            "EX": 1625,
            "␣thing": 1626,
            "nWell": 1627,
            "␣book": 1628,
            "␣things": 1629,
            "ried": 1630,
            "␣through": 1631,
            "␣new": 1632,
            "␣even": 1633,
            "␣find": 1634,
            "␣give": 1635,
            "␣bu": 1636,
            "␣must": 1637,
            "␣great": 1638,
            "EXP": 1639,
            "ance": 1640,
            "ks": 1641,
            "ious": 1642,
            "␣many": 1643,
            "oh": 1644,
            "up": 1645,
            "␣sl": 1646,
            "akes": 1647,
            "ath": 1648,
            "␣start": 1649,
            "ved": 1650,
            "␣She": 1651,
            "␣bit": 1652,
            "␣ple": 1653,
            "␣still": 1654,
            "␣help": 1655,
            "␣comp": 1656,
            "ans": 1657,
            "ily": 1658,
            "ail": 1659,
            "ect": 1660,
            "␣Ch": 1661,
            "oot": 1662,
            "nSo": 1663,
            "get": 1664,
            "ait": 1665,
            "laugh": 1666,
            "ave": 1667,
            "␣mom": 1668,
            "␣last": 1669,
            "␣lea": 1670,
            "land": 1671,
            "␣won": 1672,
            "␣called": 1673,
            "␣boy": 1674,
            "␣try": 1675,
            "ign": 1676,
            "igh": 1677,
            "␣found": 1678,
            "oy": 1679,
            "␣done": 1680,
            "aking": 1681,
            "␣show": 1682,
            "TE": 1683,
            "ru": 1684,
            "ody": 1685,
            "␣happen": 1686,
            "air": 1687,
            "␣might": 1688,
            "␣And": 1689,
            "rd": 1690,
            "␣baby": 1691,
            "␣night": 1692,
            "ves": 1693,
            "xt": 1694,
            "␣lot": 1695,
            "␣el": 1696,
            "ummy": 1697,
            "␣res": 1698,
            "␣isn": 1699,
            "␣cont": 1700,
            "␣love": 1701,
            "␣bel": 1702,
            "␣ser": 1703,
            "␣bot": 1704,
            "ult": 1705,
            "␣min": 1706,
            "ling": 1707,
            "side": 1708,
            "␣name": 1709,
            "␣che": 1710,
            "ms": 1711,
            "␣Un": 1712,
            "ates": 1713,
            "med": 1714,
            "ars": 1715,
            "ually": 1716,
            "ild": 1717,
            "␣chan": 1718,
            "als": 1719,
            "ee": 1720,
            "␣open": 1721,
            "aw": 1722,
            "␣friend": 1723,
            "␣around": 1724,
            "␣dif": 1725,
            "iver": 1726,
            "␣its": 1727,
            "chool": 1728,
            "oss": 1729,
            "␣own": 1730,
            "yes": 1731,
            "␣gl": 1732,
            "␣mov": 1733,
            "nJ": 1734,
            "␣kind": 1735,
            "ah": 1736,
            "␣water": 1737,
            "␣care": 1738,
            "␣They": 1739,
            "oney": 1740,
            "␣better": 1741,
            "body": 1742,
            "␣most": 1743,
            "␣comm": 1744,
            "ember": 1745,
            "␣mhm": 1746,
            "␣end": 1747,
            "␣count": 1748,
            "␣sure": 1749,
            "␣four": 1750,
            "ces": 1751,
            "␣rec": 1752,
            "ever": 1753,
            "rent": 1754,
            "IS": 1755,
            "␣mother": 1756,
            "␣place": 1757,
            "imes": 1758,
            "ope": 1759,
            "ww": 1760,
            "␣nice": 1761,
            "nYes": 1762,
            "nIn": 1763,
            "␣being": 1764,
            "ical": 1765,
            "␣used": 1766,
            "␣keep": 1767,
            "␣looks": 1768,
            "␣feel": 1769,
            "␣dr": 1770,
            "led": 1771,
            "␣years": 1772,
            "ited": 1773,
            "ways": 1774,
            "␣.": 1775,
            "␣doesn": 1776,
            "␣such": 1777,
            "port": 1778,
            "␣You": 1779,
            "ens": 1780,
            "␣while": 1781,
            "ere": 1782,
            "inn": 1783,
            "nThey": 1784,
            "␣anything": 1785,
            "␣run": 1786,
            "␣shall": 1787,
            "␣cour": 1788,
            "␣else": 1789,
            "amp": 1790,
            "␣des": 1791,
            "ont": 1792,
            "␣sit": 1793,
            "ince": 1794,
            "␣bre": 1795,
            "outh": 1796,
            "nShe": 1797,
            "␣same": 1798,
            "␣beg": 1799,
            "laughs": 1800,
            "␣Br": 1801,
            "␣life": 1802,
            "␣fin": 1803,
            "␣room": 1804,
            "␣next": 1805,
            "␣But": 1806,
            "AN": 1807,
            "␣school": 1808,
            "␣sw": 1809,
            "ute": 1810,
            "␣supp": 1811,
            "ss": 1812,
            "addy": 1813,
            "AD": 1814,
            "nThis": 1815,
            "␣wait": 1816,
            "␣saw": 1817,
            "RO": 1818,
            "␣3": 1819,
            "␣stop": 1820,
            "␣bus": 1821,
            "orry": 1822,
            "ird": 1823,
            "atter": 1824,
            "ations": 1825,
            "␣told": 1826,
            "orm": 1827,
            "␣bec": 1828,
            "row": 1829,
            "ump": 1830,
            "␣set": 1831,
            "␣left": 1832,
            "␣hold": 1833,
            "␣Th": 1834,
            "ction": 1835,
            "uc": 1836,
            "␣far": 1837,
            "ition": 1838,
            "␣cle": 1839,
            "␣Mummy": 1840,
            "␣always": 1841,
            "und": 1842,
            "␣please": 1843,
            "␣word": 1844,
            "aught": 1845,
            "␣mon": 1846,
            "oon": 1847,
            "␣wee": 1848,
            "␣ball": 1849,
            "␣read": 1850,
            "nThere": 1851,
            "␣att": 1852,
            "ican": 1853,
            "ident": 1854,
            "pr": 1855,
            "␣men": 1856,
            "␣col": 1857,
            "ung": 1858,
            "arly": 1859,
            "␣ah": 1860,
            "leep": 1861,
            "ta": 1862,
            "␣hard": 1863,
            "ho": 1864,
            "␣ele": 1865,
            "␣diffe": 1866,
            "ins": 1867,
            "mp": 1868,
            "␣num": 1869,
            "␣father": 1870,
            "␣spe": 1871,
            "␣gone": 1872,
            "␣took": 1873,
            "ream": 1874,
            "ug": 1875,
            "␣door": 1876,
            "␣Mar": 1877,
            "␣ever": 1878,
            "␣use": 1879,
            "␣unt": 1880,
            "␣fam": 1881,
            "oun": 1882,
            "ye": 1883,
            "ister": 1884,
            "raw": 1885,
            "␣point": 1886,
            "␣pres": 1887,
            "ness": 1888,
            "␣fun": 1889,
            "␣goes": 1890,
            "vel": 1891,
            "␣gre": 1892,
            "␣bed": 1893,
            "␣walk": 1894,
            "␣huh": 1895,
            "␣Amer": 1896,
            "␣five": 1897,
            "␣coming": 1898,
            "␣though": 1899,
            "␣pol": 1900,
            "␣box": 1901,
            "ows": 1902,
            "␣ind": 1903,
            "vent": 1904,
            "␣wom": 1905,
            "␣money": 1906,
            "␣says": 1907,
            "␣ob": 1908,
            "right": 1909,
            "ished": 1910,
            "mber": 1911,
            "␣ac": 1912,
            "␣enough": 1913,
            "␣ret": 1914,
            "The": 1915,
            "orning": 1916,
            "␣An": 1917,
            "anc": 1918,
            "␣erm": 1919,
            "HE": 1920,
            "erson": 1921,
            "␣sur": 1922,
            "␣hear": 1923,
            "ib": 1924,
            "dy": 1925,
            "␣eyes": 1926,
            "␣watch": 1927,
            "␣side": 1928,
            "␣Al": 1929,
            "␣sing": 1930,
            "ger": 1931,
            "az": 1932,
            "ower": 1933,
            "␣war": 1934,
            "uff": 1935,
            "␣hm": 1936,
            "␣str": 1937,
            "the": 1938,
            "␣face": 1939,
            "␣stand": 1940,
            "␣acc": 1941,
            "␣nothing": 1942,
            "␣until": 1943,
            "␣Ar": 1944,
            "␣real": 1945,
            "␣red": 1946,
            "␣young": 1947,
            "␣asked": 1948,
            "ph": 1949,
            "pect": 1950,
            "nHow": 1951,
            "ier": 1952,
            "␣pass": 1953,
            "␣dog": 1954,
            "␣light": 1955,
            "TEA": 1956,
            "␣quite": 1957,
            "oup": 1958,
            "␣pick": 1959,
            "ired": 1960,
            "␣morning": 1961,
            "␣thank": 1962,
            "␣reg": 1963,
            "ets": 1964,
            "␣Fran": 1965,
            "␣looking": 1966,
            "␣six": 1967,
            "␣belie": 1968,
            "␣round": 1969,
            "ross": 1970,
            "␣kill": 1971,
            "oor": 1972,
            "bab": 1973,
            "␣seen": 1974,
            "␣course": 1975,
            "␣hur": 1976,
            "nIf": 1977,
            "MCH": 1978,
            "gr": 1979,
            "␣mar": 1980,
            "␣dist": 1981,
            "ased": 1982,
            "␣second": 1983,
            "ike": 1984,
            "␣ph": 1985,
            "ts": 1986,
            "␣small": 1987,
            "␣few": 1988,
            "␣stay": 1989,
            "␣different": 1990,
            "␣pie": 1991,
            "ial": 1992,
            "␣remember": 1993,
            "ton": 1994,
            "␣sound": 1995,
            "ible": 1996,
            "␣hands": 1997,
            "␣best": 1998,
            "MA": 1999,
            "␣fell": 2000,
            "me": 2001,
            "␣_": 2002,
            "tle": 2003,
            "ank": 2004,
            "␣ent": 2005,
            "ween": 2006,
            "SIS": 2007,
            "une": 2008,
            "gether": 2009,
            "␣together": 2010,
            "␣once": 2011,
            "␣mil": 2012,
            "␣This": 2013,
            "␣fall": 2014,
            "␣Cha": 2015,
            "ational": 2016,
            "␣sk": 2017,
            "␣world": 2018,
            "␣wind": 2019,
            "fta": 2020,
            "huh": 2021,
            "eak": 2022,
            "ES": 2023,
            "␣fire": 2024,
            "␣hafta": 2025,
            "ning": 2026,
            "␣known": 2027,
            "uring": 2028,
            "mb": 2029,
            "␣sleep": 2030,
            "␣both": 2031,
            "␣getting": 2032,
            "aster": 2033,
            "oe": 2034,
            "␣heard": 2035,
            "␣hat": 2036,
            "␣soon": 2037,
            "␣yet": 2038,
            "ten": 2039,
            "␣leave": 2040,
            "␣rel": 2041,
            "␣each": 2042,
            "␣list": 2043,
            "␣ter": 2044,
            "␣children": 2045,
            "␣cap": 2046,
            "ash": 2047,
            "ollow": 2048,
            "ush": 2049,
            "␣bro": 2050,
            "ents": 2051,
            "ret": 2052,
            "␣upon": 2053,
            "ered": 2054,
            "cha": 2055,
            "␣char": 2056,
            "␣today": 2057,
            "␣sorry": 2058,
            "ener": 2059,
            "␣train": 2060,
            "␣himself": 2061,
            "ctor": 2062,
            "ures": 2063,
            "␣mind": 2064,
            "␣De": 2065,
            "␣bad": 2066,
            "␣mm": 2067,
            "␣Gr": 2068,
            "␣number": 2069,
            "␣between": 2070,
            "ject": 2071,
            "␣dear": 2072,
            "nDo": 2073,
            "its": 2074,
            "␣rest": 2075,
            "␣without": 2076,
            "␣ready": 2077,
            "␣sn": 2078,
            "ason": 2079,
            "ats": 2080,
            "␣ca": 2081,
            "rist": 2082,
            "␣foot": 2083,
            "␣looked": 2084,
            "ating": 2085,
            "␣pict": 2086,
            "ics": 2087,
            "arl": 2088,
            "␣We": 2089,
            "ina": 2090,
            "orth": 2091,
            "ife": 2092,
            "eth": 2093,
            "any": 2094,
            "␣pret": 2095,
            "␣person": 2096,
            "ged": 2097,
            "eter": 2098,
            "␣half": 2099,
            "␣having": 2100,
            "ries": 2101,
            "fect": 2102,
            "␣As": 2103,
            "␣happened": 2104,
            "ohn": 2105,
            "␣What": 2106,
            "pped": 2107,
            "ines": 2108,
            "ames": 2109,
            "␣wanted": 2110,
            "␣Eng": 2111,
            "nWhy": 2112,
            "cle": 2113,
            "␣high": 2114,
            "␣4": 2115,
            "less": 2116,
            "GMA": 2117,
            "␣dri": 2118,
            "der": 2119,
            "oice": 2120,
            "␣mus": 2121,
            "␣haven": 2122,
            "most": 2123,
            "aper": 2124,
            "ched": 2125,
            "BRO": 2126,
            "ale": 2127,
            "␣There": 2128,
            "␣later": 2129,
            "␣inst": 2130,
            "iet": 2131,
            "␣pop": 2132,
            "␣dec": 2133,
            "␣talking": 2134,
            "␣move": 2135,
            "␣lar": 2136,
            "␣knew": 2137,
            "␣sort": 2138,
            "␣air": 2139,
            "␣top": 2140,
            "rew": 2141,
            "unt": 2142,
            "ane": 2143,
            "sel": 2144,
            "␣story": 2145,
            "ma": 2146,
            "␣New": 2147,
            "␣heart": 2148,
            "osed": 2149,
            "io": 2150,
            "nU": 2151,
            "␣follow": 2152,
            "nNow": 2153,
            "␣hor": 2154,
            "␣ans": 2155,
            "␣along": 2156,
            "␣matter": 2157,
            "ork": 2158,
            "␣pretty": 2159,
            "ball": 2160,
            "␣maybe": 2161,
            "␣wond": 2162,
            "by": 2163,
            "␣cons": 2164,
            "dd": 2165,
            "␣making": 2166,
            "ertain": 2167,
            "␣gave": 2168,
            "␣United": 2169,
            "␣inter": 2170,
            "stand": 2171,
            "␣against": 2172,
            "␣cut": 2173,
            "␣anim": 2174,
            "␣everything": 2175,
            "␣table": 2176,
            "␣boys": 2177,
            "nDon": 2178,
            "␣Daddy": 2179,
            "␣days": 2180,
            "␣American": 2181,
            "cial": 2182,
            "␣live": 2183,
            "␣tra": 2184,
            "␣hour": 2185,
            "␣break": 2186,
            "sh": 2187,
            "You": 2188,
            "nCome": 2189,
            "␣No": 2190,
            "vers": 2191,
            "␣dire": 2192,
            "uss": 2193,
            "␣Mrs": 2194,
            "bo": 2195,
            "␣city": 2196,
            "ither": 2197,
            "ER": 2198,
            "␣alright": 2199,
            "␣drink": 2200,
            "␣id": 2201,
            "␣bring": 2202,
            "ual": 2203,
            "nMm": 2204,
            "part": 2205,
            "cept": 2206,
            "ief": 2207,
            "␣wasn": 2208,
            "ches": 2209,
            "ped": 2210,
            "␣died": 2211,
            "␣inv": 2212,
            "␣Mom": 2213,
            "ully": 2214,
            "aut": 2215,
            "␣blue": 2216,
            "ubl": 2217,
            "␣Miss": 2218,
            "␣God": 2219,
            "OU": 2220,
            "␣Yeah": 2221,
            "␣miss": 2222,
            "no": 2223,
            "iness": 2224,
            "␣noise": 2225,
            "␣5": 2226,
            "clud": 2227,
            "nOkay": 2228,
            "idd": 2229,
            "␣CHI": 2230,
            "ised": 2231,
            "␣saying": 2232,
            "␣ass": 2233,
            "␣add": 2234,
            "␣hell": 2235,
            "␣Ind": 2236,
            "␣sy": 2237,
            "␣aw": 2238,
            "␣family": 2239,
            "␣born": 2240,
            "ok": 2241,
            "enty": 2242,
            "oint": 2243,
            "␣cat": 2244,
            "ern": 2245,
            "␣return": 2246,
            "fr": 2247,
            "oke": 2248,
            "ters": 2249,
            "␣whole": 2250,
            "␣black": 2251,
            "␣John": 2252,
            "ision": 2253,
            "␣believe": 2254,
            "␣since": 2255,
            "to": 2256,
            "br": 2257,
            "␣actually": 2258,
            "uth": 2259,
            "␣started": 2260,
            "␣close": 2261,
            "wards": 2262,
            "␣cur": 2263,
            "␣food": 2264,
            "␣ste": 2265,
            "nLet": 2266,
            "␣hey": 2267,
            "␣chair": 2268,
            "ced": 2269,
            "␣white": 2270,
            "␣doll": 2271,
            "nAll": 2272,
            "oud": 2273,
            "illy": 2274,
            "ner": 2275,
            "␣del": 2276,
            "␣moment": 2277,
            "␣stud": 2278,
            "ants": 2279,
            "␣sub": 2280,
            "␣Sp": 2281,
            "erest": 2282,
            "bably": 2283,
            "ax": 2284,
            "␣So": 2285,
            "aken": 2286,
            "ote": 2287,
            "but": 2288,
            "␣laugh": 2289,
            "␣town": 2290,
            "ular": 2291,
            "␣swe": 2292,
            "␣near": 2293,
            "␣trying": 2294,
            "␣hot": 2295,
            "oes": 2296,
            "␣Fr": 2297,
            "␣Christ": 2298,
            "vern": 2299,
            "aid": 2300,
            "hip": 2301,
            "␣hair": 2302,
            "␣Z": 2303,
            "␣cent": 2304,
            "␣pull": 2305,
            "nHey": 2306,
            "␣song": 2307,
            "ery": 2308,
            "ready": 2309,
            "␣almost": 2310,
            "␣Cl": 2311,
            "ield": 2312,
            "␣floor": 2313,
            "␣dro": 2314,
            "␣land": 2315,
            "␣wonder": 2316,
            "omas": 2317,
            "␣feet": 2318,
            "␣comes": 2319,
            "nIs": 2320,
            "nThan": 2321,
            "zz": 2322,
            "eb": 2323,
            "cess": 2324,
            "aj": 2325,
            "␣eight": 2326,
            "␣squ": 2327,
            "␣green": 2328,
            "␣build": 2329,
            "ustr": 2330,
            "orrow": 2331,
            "␣game": 2332,
            "␣meet": 2333,
            "ole": 2334,
            "␣wouldn": 2335,
            "␣team": 2336,
            "read": 2337,
            "␣friends": 2338,
            "␣Be": 2339,
            "␣playing": 2340,
            "␣quest": 2341,
            "ined": 2342,
            "␣tri": 2343,
            "␣disc": 2344,
            "ted": 2345,
            "␣sir": 2346,
            "␣brother": 2347,
            "tend": 2348,
            "www": 2349,
            "ING": 2350,
            "aces": 2351,
            "␣interest": 2352,
            "␣Bl": 2353,
            "ocal": 2354,
            "␣Is": 2355,
            "␣became": 2356,
            "fter": 2357,
            "ony": 2358,
            "␣draw": 2359,
            "app": 2360,
            "ative": 2361,
            "␣inf": 2362,
            "␣began": 2363,
            "␣wrong": 2364,
            "␣ten": 2365,
            "␣rep": 2366,
            "␣sil": 2367,
            "␣understand": 2368,
            "␣Ger": 2369,
            "␣imp": 2370,
            "␣sign": 2371,
            "␣already": 2372,
            "␣Re": 2373,
            "␣poss": 2374,
            "␣leg": 2375,
            "nEr": 2376,
            "␣beh": 2377,
            "␣pain": 2378,
            "nK": 2379,
            "␣Then": 2380,
            "␣met": 2381,
            "␣son": 2382,
            "␣States": 2383,
            "␣country": 2384,
            "␣sent": 2385,
            "ives": 2386,
            "␣ref": 2387,
            "␣minute": 2388,
            "␣Thomas": 2389,
            "where": 2390,
            "undred": 2391,
            "␣job": 2392,
            "ying": 2393,
            "␣gotta": 2394,
            "␣quick": 2395,
            "␣pur": 2396,
            "␣Oh": 2397,
            "␣eas": 2398,
            "␣Pr": 2399,
            "nSt": 2400,
            "␣guess": 2401,
            "␣times": 2402,
            "ison": 2403,
            "␣woman": 2404,
            "key": 2405,
            "␣kid": 2406,
            "␣yell": 2407,
            "␣beaut": 2408,
            "elt": 2409,
            "␣played": 2410,
            "ama": 2411,
            "␣pay": 2412,
            "␣paper": 2413,
            "ple": 2414,
            "FCH": 2415,
            "ues": 2416,
            "ages": 2417,
            "nNot": 2418,
            "␣probably": 2419,
            "␣includ": 2420,
            "␣gi": 2421,
            "ey": 2422,
            "nMy": 2423,
            "␣lost": 2424,
            "ipp": 2425,
            "ared": 2426,
            "ster": 2427,
            "␣happy": 2428,
            "␣MOT": 2429,
            "␣tre": 2430,
            "␣fact": 2431,
            "ital": 2432,
            "end": 2433,
            "␣exc": 2434,
            "nWhen": 2435,
            "ities": 2436,
            "cted": 2437,
            "ently": 2438,
            "ots": 2439,
            "ouch": 2440,
            "␣idea": 2441,
            "ize": 2442,
            "␣speak": 2443,
            "␣picture": 2444,
            "␣front": 2445,
            "␣lead": 2446,
            "␣girls": 2447,
            "ape": 2448,
            "␣That": 2449,
            "␣color": 2450,
            "ik": 2451,
            "␣behind": 2452,
            "␣full": 2453,
            "ises": 2454,
            "␣hundred": 2455,
            "ene": 2456,
            "␣poor": 2457,
            "ivers": 2458,
            "It": 2459,
            "␣cook": 2460,
            "␣Bob": 2461,
            "olog": 2462,
            "␣fine": 2463,
            "␣makes": 2464,
            "␣listen": 2465,
            "␣aren": 2466,
            "␣contin": 2467,
            "␣fight": 2468,
            "␣voice": 2469,
            "␣brought": 2470,
            "␣sat": 2471,
            "␣coll": 2472,
            "airs": 2473,
            "␣music": 2474,
            "␣turned": 2475,
            "␣during": 2476,
            "␣6": 2477,
            "␣stuff": 2478,
            "␣stick": 2479,
            "ON": 2480,
            "␣hum": 2481,
            "ring": 2482,
            "␣dead": 2483,
            "EN": 2484,
            "␣ran": 2485,
            "␣seemed": 2486,
            "nBe": 2487,
            "␣All": 2488,
            "itting": 2489,
            "␣certain": 2490,
            "␣mine": 2491,
            "ober": 2492,
            "␣mouth": 2493,
            "wer": 2494,
            "␣means": 2495,
            "ury": 2496,
            "␣outside": 2497,
            "␣plan": 2498,
            "␣hope": 2499,
            "␣party": 2500,
            "␣movie": 2501,
            "ific": 2502,
            "tern": 2503,
            "for": 2504,
            "RA": 2505,
            "␣short": 2506,
            "cy": 2507,
            "␣At": 2508,
            "haps": 2509,
            "unch": 2510,
            "␣cup": 2511,
            "␣expl": 2512,
            "nJust": 2513,
            "␣inc": 2514,
            "ica": 2515,
            "lish": 2516,
            "␣week": 2517,
            "nOn": 2518,
            "␣THE": 2519,
            "␣month": 2520,
            "aur": 2521,
            "utes": 2522,
            "␣sun": 2523,
            "␣pu": 2524,
            "␣piece": 2525,
            "ete": 2526,
            "␣wants": 2527,
            "ense": 2528,
            "room": 2529,
            "␣proble": 2530,
            "ided": 2531,
            "␣Jack": 2532,
            "ured": 2533,
            "␣gener": 2534,
            "␣lear": 2535,
            "␣able": 2536,
            "ese": 2537,
            "␣King": 2538,
            "LO": 2539,
            "␣conf": 2540,
            "␣How": 2541,
            "␣horse": 2542,
            "␣compl": 2543,
            "iful": 2544,
            "ouble": 2545,
            "␣often": 2546,
            "␣taken": 2547,
            "␣7": 2548,
            "␣ones": 2549,
            "ert": 2550,
            "␣bar": 2551,
            "␣Sc": 2552,
            "␣offic": 2553,
            "ards": 2554,
            "␣bird": 2555,
            "Oh": 2556,
            "␣sim": 2557,
            "␣couldn": 2558,
            "ned": 2559,
            "␣record": 2560,
            "␣8": 2561,
            "␣prom": 2562,
            "␣repl": 2563,
            "␣yourself": 2564,
            "␣es": 2565,
            "␣fro": 2566,
            "␣cry": 2567,
            "␣death": 2568,
            "els": 2569,
            "␣fore": 2570,
            "␣rock": 2571,
            "ides": 2572,
            "␣Tom": 2573,
            "␣i": 2574,
            "What": 2575,
            "␣form": 2576,
            "head": 2577,
            "␣clot": 2578,
            "␣bear": 2579,
            "␣pen": 2580,
            "␣words": 2581,
            "fully": 2582,
            "inner": 2583,
            "␣late": 2584,
            "ec": 2585,
            "nWho": 2586,
            "␣prod": 2587,
            "␣,": 2588,
            "␣import": 2589,
            "iew": 2590,
            "nWhere": 2591,
            "ments": 2592,
            "NAN": 2593,
            "iam": 2594,
            "ex": 2595,
            "␣stre": 2596,
            "␣Com": 2597,
            "kes": 2598,
            "irth": 2599,
            "␣Q": 2600,
            "nLook": 2601,
            "␣dress": 2602,
            "␣sister": 2603,
            "␣taking": 2604,
            "␣Har": 2605,
            "␣large": 2606,
            "nRight": 2607,
            "␣less": 2608,
            "ones": 2609,
            "ized": 2610,
            "ask": 2611,
            "␣vis": 2612,
            "not": 2613,
            "␣myself": 2614,
            "nThen": 2615,
            "selves": 2616,
            "␣mag": 2617,
            "␣German": 2618,
            "used": 2619,
            "␣inside": 2620,
            "␣ed": 2621,
            "␣dark": 2622,
            "␣minutes": 2623,
            "␣Uh": 2624,
            "␣ev": 2625,
            "␣med": 2626,
            "rap": 2627,
            "␣eng": 2628,
            "␣line": 2629,
            "bit": 2630,
            "␣May": 2631,
            "ze": 2632,
            "bed": 2633,
            "␣till": 2634,
            "␣grand": 2635,
            "LD": 2636,
            "␣-": 2637,
            "␣His": 2638,
            "␣cold": 2639,
            "␣business": 2640,
            "␣felt": 2641,
            "␣lady": 2642,
            "ald": 2643,
            "␣tree": 2644,
            "aim": 2645,
            "␣rather": 2646,
            "␣wife": 2647,
            "nAre": 2648,
            "␣sometimes": 2649,
            "␣yellow": 2650,
            "␣road": 2651,
            "ention": 2652,
            "ider": 2653,
            "␣tele": 2654,
            "␣main": 2655,
            "␣toys": 2656,
            "umb": 2657,
            "ming": 2658,
            "arent": 2659,
            "gan": 2660,
            "ney": 2661,
            "␣age": 2662,
            "oub": 2663,
            "␣Chi": 2664,
            "␣reac": 2665,
            "␣cir": 2666,
            "␣–": 2667,
            "␣rele": 2668,
            "␣art": 2669,
            "␣bag": 2670,
            "born": 2671,
            "men": 2672,
            "␣hurt": 2673,
            "son": 2674,
            "amed": 2675,
            "␣When": 2676,
            "␣guy": 2677,
            "ead": 2678,
            "OR": 2679,
            "␣ext": 2680,
            "␣mommy": 2681,
            "aughter": 2682,
            "␣funny": 2683,
            "␣given": 2684,
            "␣sweet": 2685,
            "␣twenty": 2686,
            "␣case": 2687,
            "␣For": 2688,
            "DS": 2689,
            "EL": 2690,
            "␣present": 2691,
            "␣wood": 2692,
            "irty": 2693,
            "ists": 2694,
            "␣birth": 2695,
            "␣beautiful": 2696,
            "␣milk": 2697,
            "␣strong": 2698,
            "␣page": 2699,
            "ator": 2700,
            "␣boat": 2701,
            "owing": 2702,
            "␣state": 2703,
            "␣wear": 2704,
            "␣either": 2705,
            "␣body": 2706,
            "␣ago": 2707,
            "ham": 2708,
            "␣9": 2709,
            "rench": 2710,
            "␣serv": 2711,
            "gin": 2712,
            "␣change": 2713,
            "␣mess": 2714,
            "␣someone": 2715,
            "␣ins": 2716,
            "␣power": 2717,
            "gy": 2718,
            "␣Mommy": 2719,
            "␣mot": 2720,
            "␣English": 2721,
            "rest": 2722,
            "␣ground": 2723,
            "DAD": 2724,
            "␣alone": 2725,
            "nThank": 2726,
            "␣past": 2727,
            "ric": 2728,
            "␣others": 2729,
            "␣seven": 2730,
            "␣mark": 2731,
            "␣On": 2732,
            "␣jump": 2733,
            "We": 2734,
            "␣occ": 2735,
            "␣gets": 2736,
            "ara": 2737,
            "ising": 2738,
            "␣fif": 2739,
            "␣fast": 2740,
            "␣true": 2741,
            "UR": 2742,
            "iously": 2743,
            "ians": 2744,
            "nAs": 2745,
            "␣class": 2746,
            "␣across": 2747,
            "nDid": 2748,
            "␣important": 2749,
            "␣Count": 2750,
            "range": 2751,
            "morrow": 2752,
            "␣lay": 2753,
            "␣uhhuh": 2754,
            "ffe": 2755,
            "␣Jan": 2756,
            "␣em": 2757,
            "␣fish": 2758,
            "␣pri": 2759,
            "␣hello": 2760,
            "␣tea": 2761,
            "iff": 2762,
            "␣fair": 2763,
            "icha": 2764,
            "␣least": 2765,
            "␣publ": 2766,
            "ained": 2767,
            "␣Car": 2768,
            "cri": 2769,
            "␣trans": 2770,
            "␣govern": 2771,
            "ken": 2772,
            "itc": 2773,
            "Yes": 2774,
            "␣wish": 2775,
            "␣fav": 2776,
            "idge": 2777,
            "ops": 2778,
            "eed": 2779,
            "␣cried": 2780,
            "iving": 2781,
            "␣If": 2782,
            "␣clean": 2783,
            "atur": 2784,
            "␣Fl": 2785,
            "␣animals": 2786,
            "␣buy": 2787,
            "␣prov": 2788,
            "␣question": 2789,
            "␣working": 2790,
            "␣gun": 2791,
            "␣early": 2792,
            "␣sever": 2793,
            "␣order": 2794,
            "␣sea": 2795,
            "MAR": 2796,
            "eng": 2797,
            "arth": 2798,
            "␣fing": 2799,
            "ature": 2800,
            "␣creat": 2801,
            "␣deal": 2802,
            "ley": 2803,
            "enn": 2804,
            "␣z": 2805,
            "␣area": 2806,
            "␣adv": 2807,
            "ened": 2808,
            "␣finished": 2809,
            "␣daddy": 2810,
            "␣Will": 2811,
            "␣star": 2812,
            "␣Ph": 2813,
            "␣women": 2814,
            "ately": 2815,
            "␣ty": 2816,
            "ety": 2817,
            "␣hon": 2818,
            "␣♪": 2819,
            "␣forg": 2820,
            "␣several": 2821,
            "␣France": 2822,
            "␣Well": 2823,
            "ution": 2824,
            "␣group": 2825,
            "iding": 2826,
            "␣Ge": 2827,
            "␣Grand": 2828,
            "␣Brit": 2829,
            "␣wall": 2830,
            "␣herself": 2831,
            "iting": 2832,
            "nTh": 2833,
            "rence": 2834,
            "␣news": 2835,
            "␣guys": 2836,
            "nFor": 2837,
            "␣somebody": 2838,
            "fort": 2839,
            "␣dar": 2840,
            "␣fuck": 2841,
            "␣roll": 2842,
            "ges": 2843,
            "ummer": 2844,
            "ana": 2845,
            "␣hung": 2846,
            "␣ice": 2847,
            "inging": 2848,
            "ism": 2849,
            "␣law": 2850,
            "ains": 2851,
            "nCan": 2852,
            "PAT": 2853,
            "␣bur": 2854,
            "␣rece": 2855,
            "nV": 2856,
            "␣tried": 2857,
            "␣Ad": 2858,
            "␣win": 2859,
            "nGood": 2860,
            "isc": 2861,
            "␣pat": 2862,
            "␣da": 2863,
            "ilt": 2864,
            "␣egg": 2865,
            "␣lo": 2866,
            "␣dinner": 2867,
            "␣blood": 2868,
            "␣pos": 2869,
            "erv": 2870,
            "␣toy": 2871,
            "stem": 2872,
            "ept": 2873,
            "ering": 2874,
            "␣hit": 2875,
            "overed": 2876,
            "␣fig": 2877,
            "␣Her": 2878,
            "␣prot": 2879,
            "␣free": 2880,
            "No": 2881,
            "orld": 2882,
            "␣Ed": 2883,
            "ued": 2884,
            "owed": 2885,
            "ls": 2886,
            "uary": 2887,
            "eared": 2888,
            "uly": 2889,
            "icks": 2890,
            "ices": 2891,
            "␣expect": 2892,
            "␣Can": 2893,
            "␣camp": 2894,
            "␣glad": 2895,
            "␣truck": 2896,
            "␣thinking": 2897,
            "aced": 2898,
            "␣killed": 2899,
            "␣sold": 2900,
            "␣takes": 2901,
            "acher": 2902,
            "␣write": 2903,
            "␣reason": 2904,
            "␣jo": 2905,
            "rop": 2906,
            "raz": 2907,
            "␣pot": 2908,
            "␣Yes": 2909,
            "mon": 2910,
            "␣company": 2911,
            "␣exp": 2912,
            "␣opp": 2913,
            "␣quiet": 2914,
            "␣Char": 2915,
            "oth": 2916,
            "And": 2917,
            "att": 2918,
            "␣polit": 2919,
            "look": 2920,
            "irt": 2921,
            "␣ear": 2922,
            "␣sitting": 2923,
            "␣Sh": 2924,
            "oof": 2925,
            "iter": 2926,
            "␣mod": 2927,
            "urch": 2928,
            "␣among": 2929,
            "␣mill": 2930,
            "ousand": 2931,
            "Well": 2932,
            "␣held": 2933,
            "nGo": 2934,
            "angu": 2935,
            "␣carry": 2936,
            "II": 2937,
            "AL": 2938,
            "␣nose": 2939,
            "raid": 2940,
            "apan": 2941,
            "rict": 2942,
            "␣partic": 2943,
            "osp": 2944,
            "␣hi": 2945,
            "␣corn": 2946,
            "ounds": 2947,
            "ived": 2948,
            "␣depart": 2949,
            "unk": 2950,
            "␣French": 2951,
            "␣ju": 2952,
            "␣become": 2953,
            "␣football": 2954,
            "␣cow": 2955,
            "␣vill": 2956,
            "␣kept": 2957,
            "␣books": 2958,
            "␣IN": 2959,
            "␣window": 2960,
            "␣sal": 2961,
            "␣soft": 2962,
            "ello": 2963,
            "␣def": 2964,
            "␣ra": 2965,
            "olly": 2966,
            "␣running": 2967,
            "␣fly": 2968,
            "␣living": 2969,
            "␣step": 2970,
            "But": 2971,
            "lease": 2972,
            "␣stra": 2973,
            "␣York": 2974,
            "␣Bar": 2975,
            "␣conc": 2976,
            "␣cor": 2977,
            "iversity": 2978,
            "har": 2979,
            "␣chance": 2980,
            "␣phone": 2981,
            "␣prof": 2982,
            "␣arm": 2983,
            "␣send": 2984,
            "␣fix": 2985,
            "␣lived": 2986,
            "␣pig": 2987,
            "ford": 2988,
            "␣stood": 2989,
            "␣fur": 2990,
            "pha": 2991,
            "␣par": 2992,
            "␣touch": 2993,
            "ium": 2994,
            "␣surpr": 2995,
            "CDS": 2996,
            "␣usually": 2997,
            "␣ya": 2998,
            "␣trouble": 2999,
            "TER": 3000,
            "cil": 3001,
            "␣War": 3002,
            "␣thousand": 3003,
            "␣adm": 3004,
            "␣catch": 3005,
            "␣frog": 3006,
            "arch": 3007,
            "nMr": 3008,
            "LOI": 3009,
            "␣birthday": 3010,
            "␣Le": 3011,
            "␣doctor": 3012,
            "nGet": 3013,
            "␣County": 3014,
            "UN": 3015,
            "␣band": 3016,
            "␣bath": 3017,
            "␣X": 3018,
            "inning": 3019,
            "RE": 3020,
            "de": 3021,
            "␣cond": 3022,
            "␣?": 3023,
            "wered": 3024,
            "␣resp": 3025,
            "␣nine": 3026,
            "itten": 3027,
            "alth": 3028,
            "␣ship": 3029,
            "␣lad": 3030,
            "nAl": 3031,
            "ically": 3032,
            "dden": 3033,
            "band": 3034,
            "␣kiss": 3035,
            "␣sand": 3036,
            "␣choo": 3037,
            "␣Japan": 3038,
            "␣letter": 3039,
            "anger": 3040,
            "␣shop": 3041,
            "␣darling": 3042,
            "␣attack": 3043,
            "ange": 3044,
            "teen": 3045,
            "ox": 3046,
            "ping": 3047,
            "␣wat": 3048,
            "␣heav": 3049,
            "␣dad": 3050,
            "ears": 3051,
            "nAt": 3052,
            "␣dat": 3053,
            "␣January": 3054,
            "␣fil": 3055,
            "␣answer": 3056,
            "ession": 3057,
            "␣World": 3058,
            "␣clim": 3059,
            "RI": 3060,
            "␣Cap": 3061,
            "␣replied": 3062,
            "␣Do": 3063,
            "␣lov": 3064,
            "␣object": 3065,
            "␣system": 3066,
            "ode": 3067,
            "␣sudden": 3068,
            "␣June": 3069,
            "␣afraid": 3070,
            "␣answered": 3071,
            "␣problem": 3072,
            "␣lots": 3073,
            "iddle": 3074,
            "com": 3075,
            "ler": 3076,
            "GRA": 3077,
            "␣cross": 3078,
            "bum": 3079,
            "aul": 3080,
            "␣March": 3081,
            "␣mer": 3082,
            "bs": 3083,
            "␣block": 3084,
            "␣Con": 3085,
            "nYour": 3086,
            "mas": 3087,
            "␣Pro": 3088,
            "urs": 3089,
            "␣Joe": 3090,
            "ement": 3091,
            "␣throw": 3092,
            "owers": 3093,
            "␣Eur": 3094,
            "ADU": 3095,
            "␣mount": 3096,
            "␣named": 3097,
            "␣north": 3098,
            "␣check": 3099,
            "␣clothes": 3100,
            "oman": 3101,
            "uts": 3102,
            "␣Don": 3103,
            "␣hours": 3104,
            "␣hist": 3105,
            "␣ann": 3106,
            "ns": 3107,
            "aint": 3108,
            "␣perhaps": 3109,
            "␣clear": 3110,
            "␣tired": 3111,
            "␣points": 3112,
            "␣themselves": 3113,
            "over": 3114,
            "ude": 3115,
            "␣eating": 3116,
            "␣exper": 3117,
            "␣king": 3118,
            "ility": 3119,
            "␣tomorrow": 3120,
            "␣tem": 3121,
            "ract": 3122,
            "␣langu": 3123,
            "point": 3124,
            "␣daughter": 3125,
            "That": 3126,
            "ugust": 3127,
            "␣ord": 3128,
            "pril": 3129,
            "␣yours": 3130,
            "␣special": 3131,
            "though": 3132,
            "entle": 3133,
            "␣El": 3134,
            "ient": 3135,
            "␣married": 3136,
            "␣low": 3137,
            "␣press": 3138,
            "␣diff": 3139,
            "itch": 3140,
            "␣report": 3141,
            "␣released": 3142,
            "␣post": 3143,
            "ored": 3144,
            "ality": 3145,
            "lly": 3146,
            "␣everybody": 3147,
            "␣seems": 3148,
            "␣rain": 3149,
            "makes": 3150,
            "asure": 3151,
            "␣Jim": 3152,
            "wo": 3153,
            "␣dra": 3154,
            "ek": 3155,
            "vision": 3156,
            "␣eye": 3157,
            "␣hang": 3158,
            "ajor": 3159,
            "orge": 3160,
            "␣shoes": 3161,
            "nErm": 3162,
            "ays": 3163,
            "␣series": 3164,
            "␣suppose": 3165,
            "␣straight": 3166,
            "ean": 3167,
            "␣hors": 3168,
            "velop": 3169,
            "net": 3170,
            "ott": 3171,
            "amer": 3172,
            "uit": 3173,
            "nOne": 3174,
            "␣ill": 3175,
            "␣kids": 3176,
            "␣knows": 3177,
            "␣]": 3178,
            "␣easy": 3179,
            "che": 3180,
            "ories": 3181,
            "␣duck": 3182,
            "␣hus": 3183,
            "gue": 3184,
            "␣fit": 3185,
            "␣lives": 3186,
            "␣within": 3187,
            "␣album": 3188,
            "␣hop": 3189,
            "␣sca": 3190,
            "␣sounds": 3191,
            "␣juice": 3192,
            "␣lovely": 3193,
            "␣dream": 3194,
            "ron": 3195,
            "␣har": 3196,
            "␣deep": 3197,
            "␣putting": 3198,
            "␣passed": 3199,
            "␣Dav": 3200,
            "␣Pl": 3201,
            "␣whether": 3202,
            "␣spec": 3203,
            "ctober": 3204,
            "␣months": 3205,
            "␣government": 3206,
            "more": 3207,
            "AP": 3208,
            "␣moved": 3209,
            "␣knock": 3210,
            "unic": 3211,
            "␣charac": 3212,
            "urd": 3213,
            "␣Pe": 3214,
            "actly": 3215,
            "␣gold": 3216,
            "rol": 3217,
            "␣coup": 3218,
            "␣careful": 3219,
            "arden": 3220,
            "nSh": 3221,
            "␣sail": 3222,
            "ager": 3223,
            "␣excl": 3224,
            "par": 3225,
            "␣British": 3226,
            "␣South": 3227,
            "aged": 3228,
            "␣worked": 3229,
            "␣possible": 3230,
            "nw": 3231,
            "yl": 3232,
            "␣ton": 3233,
            "que": 3234,
            "␣event": 3235,
            "␣noises": 3236,
            "␣chick": 3237,
            "␣field": 3238,
            "ai": 3239,
            "␣Mum": 3240,
            "␣proper": 3241,
            "fast": 3242,
            "cient": 3243,
            "␣div": 3244,
            "␣Sw": 3245,
            "␣waiting": 3246,
            "␣succ": 3247,
            "␣puts": 3248,
            "␣August": 3249,
            "␣bott": 3250,
            "␣slow": 3251,
            "ances": 3252,
            "␣cannot": 3253,
            "ulation": 3254,
            "␣Hel": 3255,
            "amb": 3256,
            "ovember": 3257,
            "aimed": 3258,
            "stairs": 3259,
            "␣doub": 3260,
            "␣forget": 3261,
            "␣however": 3262,
            "friend": 3263,
            "␣shot": 3264,
            "CHILD": 3265,
            "␣fa": 3266,
            "␣single": 3267,
            "␣Man": 3268,
            "␣pretend": 3269,
            "let": 3270,
            "␣forward": 3271,
            "␣const": 3272,
            "NA": 3273,
            "He": 3274,
            "eptember": 3275,
            "␣broken": 3276,
            "␣Ab": 3277,
            "␣toward": 3278,
            "␣Tr": 3279,
            "␣arms": 3280,
            "␣childes": 3281,
            "CHILDES": 3282,
            "␣die": 3283,
            "␣diffic": 3284,
            "sc": 3285,
            "␣Phil": 3286,
            "unny": 3287,
            "cember": 3288,
            "hern": 3289,
            "nMay": 3290,
            "␣danger": 3291,
            "␣husband": 3292,
            "gas": 3293,
            "reed": 3294,
            "␣reached": 3295,
            "␣safe": 3296,
            "␣above": 3297,
            "␣forgot": 3298,
            "␣towards": 3299,
            "joy": 3300,
            "␣river": 3301,
            "␣Sam": 3302,
            "ging": 3303,
            "␣breat": 3304,
            "come": 3305,
            "␣Col": 3306,
            "ffect": 3307,
            "aser": 3308,
            "␣North": 3309,
            "nHere": 3310,
            "␣member": 3311,
            "␣ring": 3312,
            "rigin": 3313,
            "␣quickly": 3314,
            "␣region": 3315,
            "␣silly": 3316,
            "␣Go": 3317,
            "␣October": 3318,
            "␣gentle": 3319,
            "␣board": 3320,
            "␣Frank": 3321,
            "␣var": 3322,
            "␣Europe": 3323,
            "␣couple": 3324,
            "␣appro": 3325,
            "␣Per": 3326,
            "␣One": 3327,
            "␣grow": 3328,
            "␣gra": 3329,
            "␣April": 3330,
            "you": 3331,
            "ral": 3332,
            "␣wow": 3333,
            "␣sight": 3334,
            "␣police": 3335,
            "ruary": 3336,
            "␣shut": 3337,
            "ining": 3338,
            "ebruary": 3339,
            "␣*": 3340,
            "ada": 3341,
            "␣favor": 3342,
            "␣Ben": 3343,
            "␣national": 3344,
            "udd": 3345,
            "␣sol": 3346,
            "␣orange": 3347,
            "een": 3348,
            "␣whose": 3349,
            "nand": 3350,
            "␣di": 3351,
            "rod": 3352,
            "␣luck": 3353,
            "␣longer": 3354,
            "␣seat": 3355,
            "mand": 3356,
            "␣caught": 3357,
            "ked": 3358,
            "ardon": 3359,
            "nAn": 3360,
            "␣Now": 3361,
            "␣England": 3362,
            "ris": 3363,
            "␣ain": 3364,
            "gram": 3365,
            "␣nearly": 3366,
            "␣November": 3367,
            "␣la": 3368,
            "␣ve": 3369,
            "␣returned": 3370,
            "␣elect": 3371,
            "␣�": 3372,
            "␣drive": 3373,
            "ior": 3374,
            "␣seem": 3375,
            "phone": 3376,
            "␣building": 3377,
            "␣July": 3378,
            "ience": 3379,
            "␣snow": 3380,
            "␣det": 3381,
            "␣needs": 3382,
            "nAh": 3383,
            "␣third": 3384,
            "lex": 3385,
            "␣cool": 3386,
            "␣anyway": 3387,
            "␣glass": 3388,
            "␣equ": 3389,
            "attle": 3390,
            "con": 3391,
            "rom": 3392,
            "␣September": 3393,
            "␣shar": 3394,
            "␣sick": 3395,
            "␣common": 3396,
            "␣mist": 3397,
            "␣Cal": 3398,
            "␣shout": 3399,
            "␣ahead": 3400,
            "␣abs": 3401,
            "nBecause": 3402,
            "␣cos": 3403,
            "itchen": 3404,
            "␣December": 3405,
            "␣dam": 3406,
            "nTo": 3407,
            "␣clos": 3408,
            "␣dest": 3409,
            "␣worry": 3410,
            "␣fat": 3411,
            "␣treat": 3412,
            "␣arri": 3413,
            "␣engine": 3414,
            "␣esc": 3415,
            "␣Par": 3416,
            "␣department": 3417,
            "␣cray": 3418,
            "␣feeling": 3419,
            "␣After": 3420,
            "␣office": 3421,
            "␣cover": 3422,
            "gest": 3423,
            "␣Christmas": 3424,
            "␣former": 3425,
            "nPlease": 3426,
            "vocal": 3427,
            "␣visit": 3428,
            "␣effect": 3429,
            "␣station": 3430,
            "␣oper": 3431,
            "␣fill": 3432,
            "␣trees": 3433,
            "yn": 3434,
            "␣evening": 3435,
            "␣television": 3436,
            "␣tick": 3437,
            "␣cause": 3438,
            "rat": 3439,
            "␣Pres": 3440,
            "terday": 3441,
            "␣pupp": 3442,
            "␣standing": 3443,
            "␣places": 3444,
            "␣tonight": 3445,
            "ggest": 3446,
            "␣parent": 3447,
            "␣whatever": 3448,
            "␣lie": 3449,
            "uced": 3450,
            "␣hungry": 3451,
            "ele": 3452,
            "␣Mc": 3453,
            "␣February": 3454,
            "␣warm": 3455,
            "␣broke": 3456,
            "␣cake": 3457,
            "␣bye": 3458,
            "␣Nin": 3459,
            "ample": 3460,
            "␣circ": 3461,
            "␣success": 3462,
            "␣bow": 3463,
            "␣push": 3464,
            "␣kitchen": 3465,
            "fer": 3466,
            "␣million": 3467,
            "␣develop": 3468,
            "iny": 3469,
            "␣telling": 3470,
            "␣human": 3471,
            "␣fear": 3472,
            "␣suggest": 3473,
            "␣To": 3474,
            "␣shoot": 3475,
            "␣club": 3476,
            "ondon": 3477,
            "llustr": 3478,
            "AS": 3479,
            "␣stat": 3480,
            "␣instead": 3481,
            "␣stopped": 3482,
            "␣stri": 3483,
            "␣Mary": 3484,
            "␣My": 3485,
            "␣enjoy": 3486,
            "␣Peter": 3487,
            "␣cal": 3488,
            "␣player": 3489,
            "␣tape": 3490,
            "␣opened": 3491,
            "emy": 3492,
            "ien": 3493,
            "ND": 3494,
            "rible": 3495,
            "␣val": 3496,
            "␣ride": 3497,
            "␣breakfast": 3498,
            "␣YOU": 3499,
            "␣changed": 3500,
            "nSome": 3501,
            "nEvery": 3502,
            "␣built": 3503,
            "␣Ste": 3504,
            "␣University": 3505,
            "␣Min": 3506,
            "noon": 3507,
            "␣Captain": 3508,
            "␣view": 3509,
            "␣village": 3510,
            "␣bread": 3511,
            "ips": 3512,
            "␣wild": 3513,
            "␣swim": 3514,
            "eal": 3515,
            "␣teacher": 3516,
            "oops": 3517,
            "LE": 3518,
            "␣Dr": 3519,
            "␣bes": 3520,
            "␣meant": 3521,
            "SI": 3522,
            "␣super": 3523,
            "␣led": 3524,
            "omb": 3525,
            "ills": 3526,
            "␣island": 3527,
            "␣Fraser": 3528,
            "mm": 3529,
            "␣organ": 3530,
            "␣followed": 3531,
            "␣nin": 3532,
            "ffic": 3533,
            "␣butter": 3534,
            "hile": 3535,
            "uct": 3536,
            "␣est": 3537,
            "␣whom": 3538,
            "ause": 3539,
            "␣public": 3540,
            "␣indeed": 3541,
            "␣supposed": 3542,
            "␣whis": 3543,
            "uk": 3544,
            "␣origin": 3545,
            "␣strange": 3546,
            "␣disapp": 3547,
            "ified": 3548,
            "␣save": 3549,
            "␣cost": 3550,
            "ology": 3551,
            "␣test": 3552,
            "␣support": 3553,
            "ustral": 3554,
            "ror": 3555,
            "␣decided": 3556,
            "␣ow": 3557,
            "co": 3558,
            "␣pieces": 3559,
            "␣Gu": 3560,
            "␣direct": 3561,
            "uce": 3562,
            "␣career": 3563,
            "␣turns": 3564,
            "mbers": 3565,
            "␣yesterday": 3566,
            "␣prison": 3567,
            "␣store": 3568,
            "␣bottom": 3569,
            "␣written": 3570,
            "unity": 3571,
            "mother": 3572,
            "␣London": 3573,
            "␣season": 3574,
            "phant": 3575,
            "␣bright": 3576,
            "␣heavy": 3577,
            "␣Ma": 3578,
            "cially": 3579,
            "␣Sha": 3580,
            "␣garden": 3581,
            "␣anyone": 3582,
            "␣track": 3583,
            "reen": 3584,
            "␣cre": 3585,
            "␣eh": 3586,
            "␣Wh": 3587,
            "ceed": 3588,
            "ift": 3589,
            "omin": 3590,
            "␣smil": 3591,
            "␣middle": 3592,
            "bles": 3593,
            "␣mis": 3594,
            "␣fellow": 3595,
            "go": 3596,
            "ospital": 3597,
            "␣ban": 3598,
            "␣afternoon": 3599,
            "␣added": 3600,
            "␣perfect": 3601,
            "␣av": 3602,
            "␣legs": 3603,
            "␣Helen": 3604,
            "␣ut": 3605,
            "␣ir": 3606,
            "␣Ital": 3607,
            "␣brown": 3608,
            "␣park": 3609,
            "␣exactly": 3610,
            "uel": 3611,
            "␣command": 3612,
            "␣ang": 3613,
            "␣Carl": 3614,
            "␣using": 3615,
            "␣stuck": 3616,
            "vol": 3617,
            "␣following": 3618,
            "nHave": 3619,
            "␣miles": 3620,
            "␣except": 3621,
            "␣Dan": 3622,
            "bor": 3623,
            "␣pack": 3624,
            "␣position": 3625,
            "␣TO": 3626,
            "nAfter": 3627,
            "␣Some": 3628,
            "ases": 3629,
            "ushed": 3630,
            "nEx": 3631,
            "␣works": 3632,
            "␣ru": 3633,
            "␣requ": 3634,
            "idence": 3635,
            "ray": 3636,
            "ales": 3637,
            "empt": 3638,
            "␣neck": 3639,
            "␣decl": 3640,
            "gar": 3641,
            "␣weeks": 3642,
            "␣rad": 3643,
            "␣Austral": 3644,
            "␣Mart": 3645,
            "oul": 3646,
            "gen": 3647,
            "␣farm": 3648,
            "␣happens": 3649,
            "ffee": 3650,
            "␣bought": 3651,
            "␣Pat": 3652,
            "␣protect": 3653,
            "␣lau": 3654,
            "␣quar": 3655,
            "␣City": 3656,
            "␣appear": 3657,
            "␣hole": 3658,
            "ician": 3659,
            "␣cast": 3660,
            "singing": 3661,
            "ula": 3662,
            "␣program": 3663,
            "␣watching": 3664,
            "␣finish": 3665,
            "␣sus": 3666,
            "nWith": 3667,
            "night": 3668,
            "␣David": 3669,
            "␣mad": 3670,
            "␣Mark": 3671,
            "␣complete": 3672,
            "␣exclaimed": 3673,
            "␣giving": 3674,
            "␣inform": 3675,
            "␣West": 3676,
            "␣prop": 3677,
            "␣Rep": 3678,
            "␣earth": 3679,
            "ashing": 3680,
            "␣holding": 3681,
            "nel": 3682,
            "ground": 3683,
            "fl": 3684,
            "nCH": 3685,
            "␣south": 3686,
            "␣certainly": 3687,
            "oop": 3688,
            "␣elephant": 3689,
            "min": 3690,
            "␣Indian": 3691,
            "␣hasn": 3692,
            "king": 3693,
            "␣street": 3694,
            "iday": 3695,
            "␣National": 3696,
            "board": 3697,
            "␣ooh": 3698,
            "cent": 3699,
            "␣burn": 3700,
            "␣!": 3701,
            "IT": 3702,
            "␣belong": 3703,
            "␣wrote": 3704,
            "␣Bet": 3705,
            "uthor": 3706,
            "ege": 3707,
            "box": 3708,
            "␣pract": 3709,
            "␣pardon": 3710,
            "␣doubt": 3711,
            "hel": 3712,
            "␣cand": 3713,
            "␣fort": 3714,
            "␣OF": 3715,
            "pes": 3716,
            "bur": 3717,
            "␣hol": 3718,
            "␣lift": 3719,
            "␣Russ": 3720,
            "␣truth": 3721,
            "tered": 3722,
            "␣dev": 3723,
            "ichael": 3724,
            "␣tast": 3725,
            "child": 3726,
            "␣Ele": 3727,
            "␣base": 3728,
            "gu": 3729,
            "␣lunch": 3730,
            "␣worth": 3731,
            "␣learn": 3732,
            "␣Or": 3733,
            "␣members": 3734,
            "␣vi": 3735,
            "nAny": 3736,
            "␣By": 3737,
            "␣language": 3738,
            "␣example": 3739,
            "␣secret": 3740,
            "rit": 3741,
            "␣figure": 3742,
            "␣district": 3743,
            "␣TH": 3744,
            "ouncil": 3745,
            "␣Not": 3746,
            "nMaybe": 3747,
            "␣Paul": 3748,
            "␣somewhere": 3749,
            "nHello": 3750,
            "lie": 3751,
            "ishing": 3752,
            "␣general": 3753,
            "␣emp": 3754,
            "␣church": 3755,
            "igg": 3756,
            "␣captain": 3757,
            "␣tail": 3758,
            "␣hig": 3759,
            "␣With": 3760,
            "␣loc": 3761,
            "umm": 3762,
            "izz": 3763,
            "hold": 3764,
            "itted": 3765,
            "resent": 3766,
            "IC": 3767,
            "like": 3768,
            "␣service": 3769,
            "␣bas": 3770,
            "iers": 3771,
            "␣level": 3772,
            "␣mach": 3773,
            "␣space": 3774,
            "Why": 3775,
            "dom": 3776,
            "␣character": 3777,
            "␣laughs": 3778,
            "␣everyone": 3779,
            "␣sell": 3780,
            "␣cop": 3781,
            "␣anybody": 3782,
            "APTER": 3783,
            "␣summer": 3784,
            "bing": 3785,
            "␣fail": 3786,
            "␣honey": 3787,
            "␣wash": 3788,
            "LL": 3789,
            "cer": 3790,
            "␣Lord": 3791,
            "␣history": 3792,
            "␣received": 3793,
            "itty": 3794,
            "␣carried": 3795,
            "␣fifty": 3796,
            "␣busy": 3797,
            "␣dep": 3798,
            "bers": 3799,
            "␣dry": 3800,
            "␣neigh": 3801,
            "␣thirty": 3802,
            "␣master": 3803,
            "OM": 3804,
            "␣coffee": 3805,
            "␣ought": 3806,
            "␣flowers": 3807,
            "ogn": 3808,
            "␣teeth": 3809,
            "␣pictures": 3810,
            "␣hast": 3811,
            "␣chicken": 3812,
            "␣consider": 3813,
            "ille": 3814,
            "␣animal": 3815,
            "␣moving": 3816,
            "␣difficult": 3817,
            "␣leaving": 3818,
            "ressed": 3819,
            "work": 3820,
            "␣cheese": 3821,
            "␣Gl": 3822,
            "␣descri": 3823,
            "␣apart": 3824,
            "␣pink": 3825,
            "␣choc": 3826,
            "␣including": 3827,
            "␣parents": 3828,
            "ancy": 3829,
            "ED": 3830,
            "␣tot": 3831,
            "␣cars": 3832,
            "␣bottle": 3833,
            "␣reach": 3834,
            "ounter": 3835,
            "that": 3836,
            "␣sad": 3837,
            "␣compan": 3838,
            "␣anymore": 3839,
            "time": 3840,
            "␣suddenly": 3841,
            "␣George": 3842,
            "␣Why": 3843,
            "aff": 3844,
            "␣result": 3845,
            "␣rising": 3846,
            "ording": 3847,
            "␣commune": 3848,
            "ky": 3849,
            "now": 3850,
            "␣defe": 3851,
            "␣These": 3852,
            "␣loud": 3853,
            "␣cab": 3854,
            "␣spoke": 3855,
            "␣lock": 3856,
            "mpions": 3857,
            "␣hospital": 3858,
            "nCHAPTER": 3859,
            "rel": 3860,
            "eddy": 3861,
            "␣Am": 3862,
            "␣major": 3863,
            "␣spir": 3864,
            "␣beat": 3865,
            "␣Mag": 3866,
            "␣appeared": 3867,
            "␣sense": 3868,
            "␣President": 3869,
            "␣rab": 3870,
            "gie": 3871,
            "␣imag": 3872,
            "␣yep": 3873,
            "nUh": 3874,
            "pecially": 3875,
            "how": 3876,
            "␣population": 3877,
            "␣stru": 3878,
            "␣finger": 3879,
            "Illustr": 3880,
            "iger": 3881,
            "␣card": 3882,
            "␣trust": 3883,
            "ti": 3884,
            "eg": 3885,
            "sings": 3886,
            "points": 3887,
            "␣Aunt": 3888,
            "␣rub": 3889,
            "␣Em": 3890,
            "erry": 3891,
            "GH": 3892,
            "␣puzz": 3893,
            "␣weren": 3894,
            "la": 3895,
            "form": 3896,
            "␣mix": 3897,
            "␣wet": 3898,
            "arty": 3899,
            "␣feed": 3900,
            "␣plays": 3901,
            "ghed": 3902,
            "␣convers": 3903,
            "␣crying": 3904,
            "␣mat": 3905,
            "ipe": 3906,
            "␣blow": 3907,
            "␣port": 3908,
            "ression": 3909,
            "␣comfort": 3910,
            "␣continued": 3911,
            "ids": 3912,
            "␣contain": 3913,
            "gasps": 3914,
            "␣Mother": 3915,
            "rupt": 3916,
            "␣allowed": 3917,
            "uation": 3918,
            "␣self": 3919,
            "iod": 3920,
            "␣jack": 3921,
            "␣horses": 3922,
            "ggy": 3923,
            "Illustration": 3924,
            "␣thanks": 3925,
            "␣further": 3926,
            "␣walked": 3927,
            "view": 3928,
            "␣walking": 3929,
            "ET": 3930,
            "␣god": 3931,
            "␣America": 3932,
            "␣smell": 3933,
            "␣beginning": 3934,
            "␣compet": 3935,
            "␣vol": 3936,
            "lo": 3937,
            "asket": 3938,
            "␣although": 3939,
            "estern": 3940,
            "␣gas": 3941,
            "␣Dad": 3942,
            "iced": 3943,
            "␣likes": 3944,
            "house": 3945,
            "␣vide": 3946,
            "␣rul": 3947,
            "acing": 3948,
            "␣current": 3949,
            "␣gar": 3950,
            "␣Nor": 3951,
            "␣grass": 3952,
            "␣race": 3953,
            "␣dropped": 3954,
            "␣sna": 3955,
            "␣ate": 3956,
            "␣Brown": 3957,
            "ino": 3958,
            "␣Lea": 3959,
            "␣Cent": 3960,
            "what": 3961,
            "␣accept": 3962,
            "␣seeing": 3963,
            "␣corner": 3964,
            "␣pounds": 3965,
            "␣Lou": 3966,
            "␣collect": 3967,
            "␣sex": 3968,
            "␣design": 3969,
            "uty": 3970,
            "resh": 3971,
            "␣spot": 3972,
            "␣apple": 3973,
            "␣obs": 3974,
            "roll": 3975,
            "␣remark": 3976,
            "het": 3977,
            "␣recogn": 3978,
            "␣bang": 3979,
            "roy": 3980,
            "␣wide": 3981,
            "There": 3982,
            "play": 3983,
            "␣nor": 3984,
            "␣games": 3985,
            "ization": 3986,
            "␣Se": 3987,
            "wh": 3988,
            "␣tall": 3989,
            "␣Ell": 3990,
            "pend": 3991,
            "␣pock": 3992,
            "␣camer": 3993,
            "␣tor": 3994,
            "ounced": 3995,
            "nit": 3996,
            "␣jour": 3997,
            "izes": 3998,
            "whis": 3999,
            "␣Su": 4000,
            "␣natur": 4001,
            "␣fle": 4002,
            "␣picks": 4003,
            "␣type": 4004,
            "oose": 4005,
            "ume": 4006,
            "␣thou": 4007,
            "nOr": 4008,
            "␣prin": 4009,
            "olute": 4010,
            "aves": 4011,
            "␣Ex": 4012,
            "razy": 4013,
            "␣holds": 4014,
            "olate": 4015,
            "␣bra": 4016,
            "␣lose": 4017,
            "acy": 4018,
            "␣laughed": 4019,
            "aps": 4020,
            "␣distance": 4021,
            "␣Mama": 4022,
            "asant": 4023,
            "␣plate": 4024,
            "unicip": 4025,
            "␣bank": 4026,
            "␣letters": 4027,
            "␣spend": 4028,
            "␣shape": 4029,
            "ades": 4030,
            "well": 4031,
            "␣gen": 4032,
            "␣attention": 4033,
            "␣Afr": 4034,
            "␣vict": 4035,
            "␣fucking": 4036,
            "eally": 4037,
            "␣moon": 4038,
            "␣cream": 4039,
            "elve": 4040,
            "␣county": 4041,
            "noise": 4042,
            "␣Black": 4043,
            "␣created": 4044,
            "clock": 4045,
            "␣ears": 4046,
            "␣uhoh": 4047,
            "␣local": 4048,
            "␣president": 4049,
            "␣priv": 4050,
            "␣meeting": 4051,
            "riage": 4052,
            "ala": 4053,
            "␣account": 4054,
            "␣itself": 4055,
            "␣Ne": 4056,
            "nie": 4057,
            "str": 4058,
            "looks": 4059,
            "␣based": 4060,
            "␣Good": 4061,
            "␣popular": 4062,
            "␣century": 4063,
            "␣author": 4064,
            "␣Roman": 4065,
            "ida": 4066,
            "␣entire": 4067,
            "light": 4068,
            "␣lim": 4069,
            "␣danc": 4070,
            "␣Sm": 4071,
            "␣leaves": 4072,
            "␣information": 4073,
            "ograp": 4074,
            "␣sheep": 4075,
            "␣lab": 4076,
            "pered": 4077,
            "ya": 4078,
            "␣silence": 4079,
            "rian": 4080,
            "ato": 4081,
            "␣necess": 4082,
            "rs": 4083,
            "␣Hen": 4084,
            "␣spl": 4085,
            "ission": 4086,
            "␣delight": 4087,
            "␣eggs": 4088,
            "uge": 4089,
            "wood": 4090,
            "itions": 4091,
            "␣nobody": 4092,
            "␣⌊": 4093,
            "␣hide": 4094,
            "nWh": 4095,
            "␣monkey": 4096,
            "␣favorite": 4097,
            "␣period": 4098,
            "nOf": 4099,
            "␣respect": 4100,
            "␣liked": 4101,
            "␣control": 4102,
            "olved": 4103,
            "␣capital": 4104,
            "ashed": 4105,
            "␣Span": 4106,
            "␣dig": 4107,
            "bye": 4108,
            "␣grew": 4109,
            "imin": 4110,
            "␣match": 4111,
            "ads": 4112,
            "␣Mot": 4113,
            "ounded": 4114,
            "isten": 4115,
            "cher": 4116,
            "uture": 4117,
            "por": 4118,
            "␣vers": 4119,
            "␣bull": 4120,
            "␣kick": 4121,
            "␣health": 4122,
            "␣laughing": 4123,
            "vin": 4124,
            "␣Bill": 4125,
            "␣⌈": 4126,
            "␣silver": 4127,
            "␣parts": 4128,
            "lt": 4129,
            "AM": 4130,
            "␣leng": 4131,
            "␣dance": 4132,
            "bert": 4133,
            "␣writing": 4134,
            "␣none": 4135,
            "osaur": 4136,
            "raft": 4137,
            "␣ye": 4138,
            "cell": 4139,
            "iller": 4140,
            "CAR": 4141,
            "nSee": 4142,
            "ilar": 4143,
            "␣shouldn": 4144,
            "AY": 4145,
            "icro": 4146,
            "␣sky": 4147,
            "How": 4148,
            "␣Pol": 4149,
            "␣crayon": 4150,
            "␣wonderful": 4151,
            "Don": 4152,
            "ston": 4153,
            "␣interesting": 4154,
            "icy": 4155,
            "If": 4156,
            "␣Germany": 4157,
            "nSorry": 4158,
            "␣drop": 4159,
            "ply": 4160,
            "␣James": 4161,
            "nTHE": 4162,
            "␣pap": 4163,
            "␣force": 4164,
            "␣Sar": 4165,
            "␣Harry": 4166,
            "␣mention": 4167,
            "␣norm": 4168,
            "␣pet": 4169,
            "␣perfor": 4170,
            "␣Que": 4171,
            "␣$": 4172,
            "␣Let": 4173,
            "␣bell": 4174,
            "␣birds": 4175,
            "name": 4176,
            "␣tur": 4177,
            "␣wel": 4178,
            "␣famous": 4179,
            "␣Right": 4180,
            "␣names": 4181,
            "␣key": 4182,
            "obert": 4183,
            "␣stars": 4184,
            "chn": 4185,
            "astic": 4186,
            "␣showed": 4187,
            "␣William": 4188,
            "ipped": 4189,
            "␣jud": 4190,
            "␣starts": 4191,
            "bout": 4192,
            "␣hall": 4193,
            "␣sle": 4194,
            "␣incre": 4195,
            "␣mur": 4196,
            "nWait": 4197,
            "␣Me": 4198,
            "␣hate": 4199,
            "medi": 4200,
            "itive": 4201,
            "nThanks": 4202,
            "␣cell": 4203,
            "␣lying": 4204,
            "␣questions": 4205,
            "ID": 4206,
            "isted": 4207,
            "␣interested": 4208,
            "␣anx": 4209,
            "␣Mad": 4210,
            "nHis": 4211,
            "arr": 4212,
            "oom": 4213,
            "␣Billy": 4214,
            "bl": 4215,
            "ires": 4216,
            "off": 4217,
            "␣alive": 4218,
            "␣Qu": 4219,
            "␣attempt": 4220,
            "␣army": 4221,
            "␣crazy": 4222,
            "field": 4223,
            "ius": 4224,
            "aven": 4225,
            "␣gives": 4226,
            "␣paid": 4227,
            "␣hous": 4228,
            "␣Te": 4229,
            "␣INV": 4230,
            "␣bigger": 4231,
            "iforn": 4232,
            "␣wheel": 4233,
            "␣needed": 4234,
            "␣mid": 4235,
            "␣Michael": 4236,
            "␣Jwww": 4237,
            "␣hy": 4238,
            "␣‘": 4239,
            "␣thee": 4240,
            "␣Uncle": 4241,
            "␣exam": 4242,
            "viously": 4243,
            "ivil": 4244,
            "␣bridge": 4245,
            "␣finally": 4246,
            "US": 4247,
            "reg": 4248,
            "owd": 4249,
            "pers": 4250,
            "␣reading": 4251,
            "␣clever": 4252,
            "␣singing": 4253,
            "␣aut": 4254,
            "␣plant": 4255,
            "␣#": 4256,
            "␣closed": 4257,
            "␣Just": 4258,
            "soci": 4259,
            "␣Mon": 4260,
            "␣charge": 4261,
            "␣fingers": 4262,
            "␣serious": 4263,
            "␣basket": 4264,
            "␣future": 4265,
            "␣speed": 4266,
            "RY": 4267,
            "␣Rob": 4268,
            "␣However": 4269,
            "eneral": 4270,
            "ums": 4271,
            "␣trad": 4272,
            "␣camera": 4273,
            "oly": 4274,
            "␣phot": 4275,
            "␣smile": 4276,
            "␣scared": 4277,
            "ustom": 4278,
            "␣comput": 4279,
            "iment": 4280,
            "lin": 4281,
            "␣slowly": 4282,
            "ites": 4283,
            "itary": 4284,
            "␣surprise": 4285,
            "␣twelve": 4286,
            "ifornia": 4287,
            "␣officer": 4288,
            "asion": 4289,
            "␣especially": 4290,
            "irm": 4291,
            "cious": 4292,
            "␣rose": 4293,
            "iel": 4294,
            "␣→": 4295,
            "␣iss": 4296,
            "val": 4297,
            "␣below": 4298,
            "anor": 4299,
            "␣mem": 4300,
            "␣video": 4301,
            "sp": 4302,
            "␣profession": 4303,
            "␣bene": 4304,
            "ribut": 4305,
            "␣subject": 4306,
            "␣din": 4307,
            "ils": 4308,
            "␣fool": 4309,
            "␣pray": 4310,
            "␣spoon": 4311,
            "␣River": 4312,
            "␣capt": 4313,
            "␣conversation": 4314,
            "ATT": 4315,
            "nTake": 4316,
            "ument": 4317,
            "isf": 4318,
            "␣rap": 4319,
            "␣host": 4320,
            "orts": 4321,
            "␣tit": 4322,
            "␣Comm": 4323,
            "␣Great": 4324,
            "␣dirty": 4325,
            "ival": 4326,
            "␣share": 4327,
            "␣loved": 4328,
            "upid": 4329,
            "␣crack": 4330,
            "␣conne": 4331,
            "ploy": 4332,
            "iles": 4333,
            "␣film": 4334,
            "itz": 4335,
            "lymp": 4336,
            "␣problems": 4337,
            "omes": 4338,
            "␣California": 4339,
            "raph": 4340,
            "␣municip": 4341,
            "␣accident": 4342,
            "␣repe": 4343,
            "␣mass": 4344,
            "FAD": 4345,
            "␣infl": 4346,
            "hood": 4347,
            "␣chief": 4348,
            "set": 4349,
            "␣tow": 4350,
            "␣prep": 4351,
            "␣rid": 4352,
            "␣asleep": 4353,
            "kin": 4354,
            "␣due": 4355,
            "antly": 4356,
            "␣fre": 4357,
            "␣Mor": 4358,
            "␣activ": 4359,
            "eder": 4360,
            "␣Park": 4361,
            "␣direction": 4362,
            "␣paint": 4363,
            "␣House": 4364,
            "␣ep": 4365,
            "␣Bobby": 4366,
            "␣breath": 4367,
            "␣chocolate": 4368,
            "nLike": 4369,
            "wise": 4370,
            "nthe": 4371,
            "␣shows": 4372,
            "␣viol": 4373,
            "ichard": 4374,
            "␣sleeping": 4375,
            "␣species": 4376,
            "␣countries": 4377,
            "aching": 4378,
            "␣terrible": 4379,
            "␣dogs": 4380,
            "␣shit": 4381,
            "af": 4382,
            "ether": 4383,
            "␣van": 4384,
            "St": 4385,
            "ili": 4386,
            "␣invest": 4387,
            "␣educ": 4388,
            "␣fresh": 4389,
            "␣fem": 4390,
            "␣Sy": 4391,
            "␣asking": 4392,
            "alley": 4393,
            "␣Party": 4394,
            "gs": 4395,
            "␣circle": 4396,
            "ably": 4397,
            "␣shore": 4398,
            "␣separ": 4399,
            "hank": 4400,
            "␣extra": 4401,
            "ods": 4402,
            "ours": 4403,
            "eep": 4404,
            "␣adult": 4405,
            "␣remain": 4406,
            "␣Olymp": 4407,
            "␣hurry": 4408,
            "␣pocket": 4409,
            "gged": 4410,
            "under": 4411,
            "␣helped": 4412,
            "␣machine": 4413,
            "␣served": 4414,
            "␣picked": 4415,
            "␣forth": 4416,
            "␣straw": 4417,
            "␣bite": 4418,
            "nes": 4419,
            "␣turning": 4420,
            "␣coat": 4421,
            "yle": 4422,
            "␣fright": 4423,
            "␣pal": 4424,
            "␣naught": 4425,
            "␣covered": 4426,
            "pose": 4427,
            "pping": 4428,
            "␣Betty": 4429,
            "OW": 4430,
            "ingly": 4431,
            "cuse": 4432,
            "␣rob": 4433,
            "␣forty": 4434,
            "kn": 4435,
            "␣Red": 4436,
            "␣accom": 4437,
            "␣west": 4438,
            "TUR": 4439,
            "␣comb": 4440,
            "␣slight": 4441,
            "␣spread": 4442,
            "␣Sund": 4443,
            "␣Bon": 4444,
            "␣joined": 4445,
            "␣include": 4446,
            "␣India": 4447,
            "nyou": 4448,
            "ico": 4449,
            "␣meat": 4450,
            "␣peace": 4451,
            "gel": 4452,
            "␣politician": 4453,
            "␣scr": 4454,
            "␣hardly": 4455,
            "␣Dor": 4456,
            "␣earl": 4457,
            "␣AND": 4458,
            "␣likely": 4459,
            "␣older": 4460,
            "␣spent": 4461,
            "hem": 4462,
            "␣court": 4463,
            "␣represent": 4464,
            "cks": 4465,
            "Now": 4466,
            "epend": 4467,
            "␣term": 4468,
            "␣amount": 4469,
            "␣immedi": 4470,
            "␣fol": 4471,
            "␣drawing": 4472,
            "conom": 4473,
            "outs": 4474,
            "ination": 4475,
            "uses": 4476,
            "illa": 4477,
            "␣rabbit": 4478,
            "␣pers": 4479,
            "␣blank": 4480,
            "␣learned": 4481,
            "␣stage": 4482,
            "␣process": 4483,
            "lands": 4484,
            "␣ways": 4485,
            "uction": 4486,
            "␣talked": 4487,
            "␣caused": 4488,
            "rey": 4489,
            "LY": 4490,
            "inite": 4491,
            "␣Jul": 4492,
            "␣First": 4493,
            "␣forest": 4494,
            "␣Sec": 4495,
            "␣Amy": 4496,
            "␣US": 4497,
            "␣crowd": 4498,
            "␣entered": 4499,
            "␣Where": 4500,
            "uten": 4501,
            "␣sevent": 4502,
            "hire": 4503,
            "␣promise": 4504,
            "␣League": 4505,
            "erve": 4506,
            "␣Sant": 4507,
            "can": 4508,
            "␣ver": 4509,
            "ville": 4510,
            "␣oops": 4511,
            "rect": 4512,
            "oses": 4513,
            "UNK": 4514,
            "olutely": 4515,
            "ushing": 4516,
            "va": 4517,
            "␣Mat": 4518,
            "They": 4519,
            "ption": 4520,
            "␣Of": 4521,
            "cience": 4522,
            "aker": 4523,
            "yond": 4524,
            "␣study": 4525,
            "␣hun": 4526,
            "␣stone": 4527,
            "␣East": 4528,
            "␣situation": 4529,
            "iant": 4530,
            "nStop": 4531,
            "rib": 4532,
            "hin": 4533,
            "␣declared": 4534,
            "␣upstairs": 4535,
            "␣Sir": 4536,
            "␣Who": 4537,
            "␣Luc": 4538,
            "nal": 4539,
            "␣uncle": 4540,
            "olf": 4541,
            "␣Sue": 4542,
            "␣square": 4543,
            "␣battle": 4544,
            "␣worse": 4545,
            "cul": 4546,
            "␣size": 4547,
            "␣mountain": 4548,
            "␣similar": 4549,
            "esus": 4550,
            "atives": 4551,
            "andy": 4552,
            "␣rail": 4553,
            "␣concern": 4554,
            "sy": 4555,
            "␣calling": 4556,
            "␣satisf": 4557,
            "istory": 4558,
            "ests": 4559,
            "␣tour": 4560,
            "nam": 4561,
            "␣thy": 4562,
            "␣spring": 4563,
            "reek": 4564,
            "␣Japanese": 4565,
            "␣driving": 4566,
            "␣welcome": 4567,
            "␣den": 4568,
            "nCl": 4569,
            "isy": 4570,
            "aded": 4571,
            "␣ris": 4572,
            "␣Eleanor": 4573,
            "␣Republ": 4574,
            "ams": 4575,
            "ference": 4576,
            "order": 4577,
            "␣stories": 4578,
            "arm": 4579,
            "␣length": 4580,
            "␣Govern": 4581,
            "␣Fred": 4582,
            "ensus": 4583,
            "␣Henry": 4584,
            "ously": 4585,
            "elly": 4586,
            "VE": 4587,
            "ka": 4588,
            "␣broad": 4589,
            "␣search": 4590,
            "␣natural": 4591,
            "␣destroy": 4592,
            "␣boo": 4593,
            "erved": 4594,
            "of": 4595,
            "reme": 4596,
            "␣eff": 4597,
            "␣angry": 4598,
            "␣tiny": 4599,
            "␣neg": 4600,
            "␣relig": 4601,
            "␣Are": 4602,
            "␣excuse": 4603,
            "␣dollars": 4604,
            "␣laid": 4605,
            "URS": 4606,
            "␣stupid": 4607,
            "ibly": 4608,
            "␣rese": 4609,
            "LA": 4610,
            "␣sandw": 4611,
            "␣Come": 4612,
            "␣steps": 4613,
            "␣guard": 4614,
            "aches": 4615,
            "org": 4616,
            "␣path": 4617,
            "␣hiding": 4618,
            "␣join": 4619,
            "␣utter": 4620,
            "␣blocks": 4621,
            "nHi": 4622,
            "SO": 4623,
            "␣Ser": 4624,
            "␣clock": 4625,
            "␣Robert": 4626,
            "␣emb": 4627,
            "nded": 4628,
            "orthern": 4629,
            "inary": 4630,
            "edd": 4631,
            "␣various": 4632,
            "␣tight": 4633,
            "␣skin": 4634,
            "␣largest": 4635,
            "␣lines": 4636,
            "␣shirt": 4637,
            "␣enemy": 4638,
            "␣rich": 4639,
            "ergy": 4640,
            "␣Okay": 4641,
            "␣Minister": 4642,
            "essie": 4643,
            "␣Aust": 4644,
            "␣directed": 4645,
            "␣enc": 4646,
            "␣teddy": 4647,
            "␣particular": 4648,
            "␣babies": 4649,
            "␣hill": 4650,
            "␣Jo": 4651,
            "reet": 4652,
            "␣movies": 4653,
            "␣cloud": 4654,
            "ita": 4655,
            "␣Coll": 4656,
            "␣naughty": 4657,
            "␣Ant": 4658,
            "␣ur": 4659,
            "␣dressed": 4660,
            "col": 4661,
            "␣Er": 4662,
            "␣role": 4663,
            "␣discuss": 4664,
            "asc": 4665,
            "nTell": 4666,
            "␣beha": 4667,
            "ees": 4668,
            "␣fighting": 4669,
            "␣threw": 4670,
            "␣nurs": 4671,
            "␣east": 4672,
            "␣winter": 4673,
            "sidered": 4674,
            "␣lion": 4675,
            "␣beyond": 4676,
            "␣considered": 4677,
            "␣leader": 4678,
            "action": 4679,
            "␣deter": 4680,
            "␣beside": 4681,
            "␣Australia": 4682,
            "aud": 4683,
            "␣agreed": 4684,
            "oyal": 4685,
            "␣aff": 4686,
            "astern": 4687,
            "atic": 4688,
            "laughing": 4689,
            "␣attend": 4690,
            "␣final": 4691,
            "␣falling": 4692,
            "␣explain": 4693,
            "␣tou": 4694,
            "␣numbers": 4695,
            "␣ge": 4696,
            "␣Blue": 4697,
            "␣placed": 4698,
            "␣missing": 4699,
            "nThese": 4700,
            "␣shoe": 4701,
            "␣rough": 4702,
            "␣Co": 4703,
            "␣phys": 4704,
            "␣medic": 4705,
            "ially": 4706,
            "nis": 4707,
            "␣thick": 4708,
            "␣drew": 4709,
            "␣puzzle": 4710,
            "␣goin": 4711,
            "␣Here": 4712,
            "␣colors": 4713,
            "bre": 4714,
            "␣flat": 4715,
            "␣wha": 4716,
            "␣streng": 4717,
            "␣flying": 4718,
            "ography": 4719,
            "␣refer": 4720,
            "␣ham": 4721,
            "␣respons": 4722,
            "␣happening": 4723,
            "␣Alex": 4724,
            "zen": 4725,
            "cture": 4726,
            "essor": 4727,
            "␣Cat": 4728,
            "␣San": 4729,
            "␣action": 4730,
            "␣Hall": 4731,
            "mie": 4732,
            "inct": 4733,
            "␣wake": 4734,
            "icious": 4735,
            "␣plane": 4736,
            "␣ma": 4737,
            "ux": 4738,
            "␣driver": 4739,
            "␣spell": 4740,
            "hered": 4741,
            "ails": 4742,
            "␣ble": 4743,
            "␣cult": 4744,
            "␣unless": 4745,
            "␣joy": 4746,
            "uke": 4747,
            "␣Mer": 4748,
            "arrow": 4749,
            "␣discovered": 4750,
            "␣watched": 4751,
            "␣arrived": 4752,
            "␣scar": 4753,
            "␣raised": 4754,
            "␣introd": 4755,
            "␣II": 4756,
            "sha": 4757,
            "␣onto": 4758,
            "␣puppet": 4759,
            "␣soldiers": 4760,
            "␣suit": 4761,
            "stit": 4762,
            "oles": 4763,
            "rer": 4764,
            "␣taste": 4765,
            "␣Sunday": 4766,
            "␣sett": 4767,
            "␣pulled": 4768,
            "␣missed": 4769,
            "aturday": 4770,
            "ached": 4771,
            "␣State": 4772,
            "␣trip": 4773,
            "CK": 4774,
            "␣Sarah": 4775,
            "␣Cr": 4776,
            "rans": 4777,
            "␣dinosaur": 4778,
            "nWill": 4779,
            "␣wearing": 4780,
            "␣difference": 4781,
            "ables": 4782,
            "␣houses": 4783,
            "␣sens": 4784,
            "␣Anne": 4785,
            "␣easily": 4786,
            "My": 4787,
            "ira": 4788,
            "␣Father": 4789,
            "␣mam": 4790,
            "antic": 4791,
            "␣Dick": 4792,
            "␣ide": 4793,
            "ena": 4794,
            "chan": 4795,
            "␣School": 4796,
            "iction": 4797,
            "ander": 4798,
            "␣proud": 4799,
            "␣oppos": 4800,
            "␣Ros": 4801,
            "␣thinks": 4802,
            "␣needta": 4803,
            "␣Spanish": 4804,
            "␣eager": 4805,
            "essel": 4806,
            "oken": 4807,
            "ousin": 4808,
            "oming": 4809,
            "␣Mal": 4810,
            "␣Carol": 4811,
            "␣escape": 4812,
            "␣iron": 4813,
            "␣lid": 4814,
            "nMhm": 4815,
            "␣demand": 4816,
            "␣relations": 4817,
            "line": 4818,
            "ois": 4819,
            "␣brush": 4820,
            "␣simple": 4821,
            "␣pun": 4822,
            "␣crit": 4823,
            "␣weather": 4824,
            "␣gate": 4825,
            "␣temper": 4826,
            "All": 4827,
            "aura": 4828,
            "␣formed": 4829,
            "ighs": 4830,
            "lect": 4831,
            "ples": 4832,
            "␣appl": 4833,
            "ural": 4834,
            "␣moves": 4835,
            "nds": 4836,
            "␣Cup": 4837,
            "␣micro": 4838,
            "␣und": 4839,
            "␣market": 4840,
            "face": 4841,
            "␣&": 4842,
            "␣bud": 4843,
            "oring": 4844,
            "␣pleasure": 4845,
            "␣tax": 4846,
            "ups": 4847,
            "␣tap": 4848,
            "␣speaking": 4849,
            "␣weap": 4850,
            "␣Med": 4851,
            "␣manner": 4852,
            "urse": 4853,
            "␣shr": 4854,
            "␣suff": 4855,
            "␣woods": 4856,
            "IR": 4857,
            "␣sharp": 4858,
            "␣handle": 4859,
            "ciety": 4860,
            "vell": 4861,
            "␣Bur": 4862,
            "asons": 4863,
            "ashion": 4864,
            "␣offe": 4865,
            "␣empty": 4866,
            "␣bill": 4867,
            "nBy": 4868,
            "␣filled": 4869,
            "␣background": 4870,
            "pin": 4871,
            "ency": 4872,
            "elle": 4873,
            "␣Jane": 4874,
            "nReally": 4875,
            "ivid": 4876,
            "vocalizes": 4877,
            "OL": 4878,
            "␣professional": 4879,
            "ularly": 4880,
            "␣manage": 4881,
            "␣cere": 4882,
            "␣grad": 4883,
            "␣Mus": 4884,
            "iled": 4885,
            "␣college": 4886,
            "␣mir": 4887,
            "␣goodness": 4888,
            "ometimes": 4889,
            "oved": 4890,
            "␣starting": 4891,
            "␣buck": 4892,
            "␣dust": 4893,
            "␣dangerous": 4894,
            "␣spirit": 4895,
            "␣Bert": 4896,
            "gl": 4897,
            "␣Tur": 4898,
            "␣crew": 4899,
            "roat": 4900,
            "pens": 4901,
            "father": 4902,
            "She": 4903,
            "azing": 4904,
            "␣anywhere": 4905,
            "␣Mex": 4906,
            "␣honest": 4907,
            "idden": 4908,
            "␣mater": 4909,
            "␣depend": 4910,
            "␣La": 4911,
            "␣purple": 4912,
            "␣wit": 4913,
            "␣computer": 4914,
            "ett": 4915,
            "␣Che": 4916,
            "␣threat": 4917,
            "␣surprised": 4918,
            "ences": 4919,
            "␣Richard": 4920,
            "␣ended": 4921,
            "␣begin": 4922,
            "Do": 4923,
            "␣General": 4924,
            "ago": 4925,
            "␣dru": 4926,
            "␣bound": 4927,
            "outhern": 4928,
            "␣Bro": 4929,
            "utenant": 4930,
            "utch": 4931,
            "␣completely": 4932,
            "␣hadn": 4933,
            "SIB": 4934,
            "ternational": 4935,
            "␣employ": 4936,
            "bour": 4937,
            "␣Jean": 4938,
            "␣Champions": 4939,
            "␣roof": 4940,
            "iest": 4941,
            "␣fruit": 4942,
            "␣techn": 4943,
            "icle": 4944,
            "␣Ber": 4945,
            "oves": 4946,
            "␣snake": 4947,
            "picks": 4948,
            "␣Bo": 4949,
            "Then": 4950,
            "␣huge": 4951,
            "␣vessel": 4952,
            "␣regard": 4953,
            "sey": 4954,
            "␣coast": 4955,
            "␣announced": 4956,
            "␣tiger": 4957,
            "nCh": 4958,
            "␣stream": 4959,
            "ugg": 4960,
            "␣Christian": 4961,
            "␣Cor": 4962,
            "nGive": 4963,
            "nListen": 4964,
            "␣Bel": 4965,
            "␣tower": 4966,
            "vious": 4967,
            "␣cro": 4968,
            "␣High": 4969,
            "␣Tex": 4970,
            "␣hero": 4971,
            "␣bee": 4972,
            "␣Paris": 4973,
            "Qu": 4974,
            "␣scene": 4975,
            "␣quarter": 4976,
            "␣therefore": 4977,
            "vi": 4978,
            "␣nature": 4979,
            "␣deg": 4980,
            "␣stran": 4981,
            "␣pleasant": 4982,
            "␣inj": 4983,
            "cean": 4984,
            "sil": 4985,
            "␣social": 4986,
            "␣fault": 4987,
            "heart": 4988,
            "␣higher": 4989,
            "puts": 4990,
            "pa": 4991,
            "nTwo": 4992,
            "␣radio": 4993,
            "cast": 4994,
            "␣expected": 4995,
            "omething": 4996,
            "␣civil": 4997,
            "␣flower": 4998,
            "enny": 4999,
            "␣cabin": 5000,
            "␣influ": 5001,
            "alt": 5002,
            "␣smoke": 5003,
            "␣actor": 5004,
            "␣mum": 5005,
            "␣Little": 5006,
            "␣Child": 5007,
            "␣log": 5008,
            "␣sugar": 5009,
            "␣fallen": 5010,
            "␣Ro": 5011,
            "anced": 5012,
            "␣date": 5013,
            "␣kitty": 5014,
            "␣From": 5015,
            "pper": 5016,
            "␣believed": 5017,
            "␣scream": 5018,
            "␣Tony": 5019,
            "␣tone": 5020,
            "␣cheer": 5021,
            "␣meaning": 5022,
            "␣whoops": 5023,
            "␣songs": 5024,
            "␣Ol": 5025,
            "␣plain": 5026,
            "␣simply": 5027,
            "oph": 5028,
            "␣purpose": 5029,
            "␣notice": 5030,
            "␣pan": 5031,
            "UT": 5032,
            "␣excited": 5033,
            "aine": 5034,
            "␣En": 5035,
            "Not": 5036,
            "␣opport": 5037,
            "␣pleased": 5038,
            "itor": 5039,
            "nUn": 5040,
            "␣haha": 5041,
            "␣bless": 5042,
            "␣aud": 5043,
            "␣surv": 5044,
            "␣necessary": 5045,
            "␣duty": 5046,
            "␣original": 5047,
            "␣lower": 5048,
            "iot": 5049,
            "␣Saturday": 5050,
            "itude": 5051,
            "␣political": 5052,
            "␣immediately": 5053,
            "␣Air": 5054,
            "rem": 5055,
            "eer": 5056,
            "ords": 5057,
            "␣agree": 5058,
            "␣supper": 5059,
            "␣TV": 5060,
            "␣project": 5061,
            "␣twice": 5062,
            "␣motor": 5063,
            "␣energy": 5064,
            "ggie": 5065,
            "This": 5066,
            "berry": 5067,
            "hest": 5068,
            "ledge": 5069,
            "␣faith": 5070,
            "␣European": 5071,
            "␣)": 5072,
            "␣econom": 5073,
            "nEven": 5074,
            "␣military": 5075,
            "␣experience": 5076,
            "ems": 5077,
            "␣edge": 5078,
            "␣Mac": 5079,
            "␣smart": 5080,
            "␣occasion": 5081,
            "␣feat": 5082,
            "hal": 5083,
            "␣arrest": 5084,
            "ushes": 5085,
            "␣singer": 5086,
            "␣modern": 5087,
            "␣lights": 5088,
            "␣thus": 5089,
            "␣Queen": 5090,
            "mit": 5091,
            "abel": 5092,
            "␣swimming": 5093,
            "ae": 5094,
            "counter": 5095,
            "nFrom": 5096,
            "␣heads": 5097,
            "␣brief": 5098,
            "␣municipality": 5099,
            "␣White": 5100,
            "␣travel": 5101,
            "she": 5102,
            "nNothing": 5103,
            "␣grown": 5104,
            "cip": 5105,
            "␣produced": 5106,
            "␣usual": 5107,
            "␣mostly": 5108,
            "␣grab": 5109,
            "anch": 5110,
            "don": 5111,
            "␣pin": 5112,
            "takes": 5113,
            "oups": 5114,
            "␣awful": 5115,
            "bie": 5116,
            "␣allow": 5117,
            "␣private": 5118,
            "␣Ac": 5119,
            "␣beach": 5120,
            "␣cart": 5121,
            "␣mouse": 5122,
            "hips": 5123,
            "␣ce": 5124,
            "␣custom": 5125,
            "␣Its": 5126,
            "␣guns": 5127,
            "␣ident": 5128,
            "␣tong": 5129,
            "␣cookie": 5130,
            "␣Ke": 5131,
            "onel": 5132,
            "eds": 5133,
            "␣settle": 5134,
            "␣ant": 5135,
            "brother": 5136,
            "In": 5137,
            "␣Steven": 5138,
            "ria": 5139,
            "rance": 5140,
            "␣Old": 5141,
            "␣Council": 5142,
            "␣runs": 5143,
            "␣journey": 5144,
            "FRI": 5145,
            "␣net": 5146,
            "eless": 5147,
            "␣inn": 5148,
            "cries": 5149,
            "␣offer": 5150,
            "ruction": 5151,
            "␣Purd": 5152,
            "van": 5153,
            "bered": 5154,
            "usion": 5155,
            "ointed": 5156,
            "␣indust": 5157,
            "␣lake": 5158,
            "yer": 5159,
            "istan": 5160,
            "␣trick": 5161,
            "␣Ham": 5162,
            "␣soul": 5163,
            "vey": 5164,
            "␣opening": 5165,
            "␣knife": 5166,
            "␣Bunny": 5167,
            "arry": 5168,
            "␣lucky": 5169,
            "␣magic": 5170,
            "ators": 5171,
            "␣Scott": 5172,
            "inese": 5173,
            "␣officers": 5174,
            "␣Bab": 5175,
            "␣total": 5176,
            "␣vo": 5177,
            "␣promised": 5178,
            "␣Louis": 5179,
            "ration": 5180,
            "nDoes": 5181,
            "jo": 5182,
            "␣advent": 5183,
            "SOA": 5184,
            "␣plenty": 5185,
            "␣struck": 5186,
            "␣carefully": 5187,
            "ners": 5188,
            "ively": 5189,
            "␣brave": 5190,
            "osing": 5191,
            "pet": 5192,
            "␣slide": 5193,
            "␣Sim": 5194,
            "␣terms": 5195,
            "bon": 5196,
            "␣button": 5197,
            "␣Hey": 5198,
            "known": 5199,
            "␣mummy": 5200,
            "␣stret": 5201,
            "oted": 5202,
            "␣strength": 5203,
            "␣pound": 5204,
            "␣exist": 5205,
            "␣impro": 5206,
            "ishes": 5207,
            "␣dem": 5208,
            "uckles": 5209,
            "␣imm": 5210,
            "␣pause": 5211,
            "␣interrupt": 5212,
            "␣IT": 5213,
            "chie": 5214,
            "ossible": 5215,
            "tr": 5216,
            "␣note": 5217,
            "␣Big": 5218,
            "␣fellows": 5219,
            "iber": 5220,
            "␣noticed": 5221,
            "␣census": 5222,
            "␣listening": 5223,
            "␣Texas": 5224,
            "␣storm": 5225,
            "␣Port": 5226,
            "␣Ag": 5227,
            "␣earlier": 5228,
            "Is": 5229,
            "␣Summer": 5230,
            "␣tears": 5231,
            "␣saved": 5232,
            "lend": 5233,
            "just": 5234,
            "␣weight": 5235,
            "␣Purdie": 5236,
            "␣seconds": 5237,
            "␣Mic": 5238,
            "rank": 5239,
            "ibility": 5240,
            "back": 5241,
            "␣Union": 5242,
            "␣ap": 5243,
            "␣ladies": 5244,
            "␣Maggie": 5245,
            "␣Grandma": 5246,
            "␣ordered": 5247,
            "nAr": 5248,
            "␣election": 5249,
            "ental": 5250,
            "mar": 5251,
            "␣deck": 5252,
            "␣Nic": 5253,
            "elp": 5254,
            "ki": 5255,
            "␣attract": 5256,
            "nHistory": 5257,
            "␣growing": 5258,
            "␣lips": 5259,
            "nWould": 5260,
            "␣choice": 5261,
            "initely": 5262,
            "oons": 5263,
            "ucky": 5264,
            "eech": 5265,
            "gon": 5266,
            "␣Your": 5267,
            "␣Mel": 5268,
            "␣trail": 5269,
            "␣Stan": 5270,
            "hah": 5271,
            "␣nea": 5272,
            "␣non": 5273,
            "␣flag": 5274,
            "␣assist": 5275,
            "␣watches": 5276,
            "ols": 5277,
            "␣strugg": 5278,
            "␣pit": 5279,
            "␣shoulder": 5280,
            "itation": 5281,
            "pan": 5282,
            "ograph": 5283,
            "␣evidence": 5284,
            "␣imagine": 5285,
            "␣pair": 5286,
            "RYA": 5287,
            "␣tv": 5288,
            "␣stairs": 5289,
            "agon": 5290,
            "␣Earth": 5291,
            "␣occup": 5292,
            "␣bowl": 5293,
            "ashington": 5294,
            "omen": 5295,
            "burg": 5296,
            "␣Lee": 5297,
            "␣shake": 5298,
            "␣Kingdom": 5299,
            "vere": 5300,
            "ij": 5301,
            "mond": 5302,
            "␣wand": 5303,
            "␣youth": 5304,
            "eman": 5305,
            "ening": 5306,
            "␣walks": 5307,
            "␣involved": 5308,
            "␣epis": 5309,
            "␣Italian": 5310,
            "␣mistake": 5311,
            "CAT": 5312,
            "aret": 5313,
            "␣choose": 5314,
            "␣estab": 5315,
            "inger": 5316,
            "␣Street": 5317,
            "kins": 5318,
            "␣Doctor": 5319,
            "nRe": 5320,
            "␣chem": 5321,
            "␣message": 5322,
            "␣Russian": 5323,
            "anda": 5324,
            "istics": 5325,
            "␣keeping": 5326,
            "rot": 5327,
            "␣taught": 5328,
            "␣groups": 5329,
            "␣downstairs": 5330,
            "nWhich": 5331,
            "put": 5332,
            "nOK": 5333,
            "␣’": 5334,
            "␣occur": 5335,
            "␣double": 5336,
            "␣Many": 5337,
            "aked": 5338,
            "␣Anna": 5339,
            "eaks": 5340,
            "nExcuse": 5341,
            "␣et": 5342,
            "␣shad": 5343,
            "␣nest": 5344,
            "␣telephone": 5345,
            "␣rule": 5346,
            "izza": 5347,
            "␣continues": 5348,
            "␣climb": 5349,
            "␣meal": 5350,
            "␣Gra": 5351,
            "ero": 5352,
            "␣ON": 5353,
            "␣Ann": 5354,
            "␣cards": 5355,
            "OO": 5356,
            "␣Tim": 5357,
            "␣Charles": 5358,
            "␣bedroom": 5359,
            "ify": 5360,
            "␣areas": 5361,
            "␣whoa": 5362,
            "ctions": 5363,
            "␣China": 5364,
            "rying": 5365,
            "igs": 5366,
            "␣fifteen": 5367,
            "␣Canada": 5368,
            "ette": 5369,
            "␣published": 5370,
            "␣earn": 5371,
            "␣Gold": 5372,
            "␣sac": 5373,
            "␣row": 5374,
            "␣murder": 5375,
            "␣sides": 5376,
            "␣hotel": 5377,
            "␣Italy": 5378,
            "␣tries": 5379,
            "using": 5380,
            "yy": 5381,
            "␣remem": 5382,
            "oured": 5383,
            "␣plants": 5384,
            "␣regular": 5385,
            "␣tells": 5386,
            "IM": 5387,
            "␣wan": 5388,
            "yr": 5389,
            "asp": 5390,
            "␣calls": 5391,
            "␣amb": 5392,
            "␣Laura": 5393,
            "nBl": 5394,
            "␣chap": 5395,
            "has": 5396,
            "␣begins": 5397,
            "␣stock": 5398,
            "ontin": 5399,
            "␣Ross": 5400,
            "␣newsp": 5401,
            "JEN": 5402,
            "␣personal": 5403,
            "␣brain": 5404,
            "␣spoken": 5405,
            "␣gro": 5406,
            "␣calm": 5407,
            "␣intend": 5408,
            "␣Sen": 5409,
            "nding": 5410,
            "␣ST": 5411,
            "␣Nat": 5412,
            "hall": 5413,
            "␣pill": 5414,
            "␣dise": 5415,
            "␣OK": 5416,
            "␣center": 5417,
            "␣scient": 5418,
            "␣flight": 5419,
            "␣ho": 5420,
            "icated": 5421,
            "␣founded": 5422,
            "elebr": 5423,
            "␣rapid": 5424,
            "umber": 5425,
            "␣Pri": 5426,
            "oid": 5427,
            "␣bunny": 5428,
            "␣Dem": 5429,
            "␣unc": 5430,
            "oughs": 5431,
            "␣dancing": 5432,
            "VAL": 5433,
            "␣yum": 5434,
            "␣surr": 5435,
            "␣smaller": 5436,
            "nMe": 5437,
            "nce": 5438,
            "␣title": 5439,
            "␣Washington": 5440,
            "␣orders": 5441,
            "␣gentleman": 5442,
            "␣gall": 5443,
            "␣acqu": 5444,
            "␣bump": 5445,
            "␣neither": 5446,
            "␣reaches": 5447,
            "otion": 5448,
            "␣toast": 5449,
            "␣independ": 5450,
            "␣Scot": 5451,
            "␣rocks": 5452,
            "␣pour": 5453,
            "urity": 5454,
            "actor": 5455,
            "␣jumped": 5456,
            "iring": 5457,
            "␣aged": 5458,
            "␣Sch": 5459,
            "␣community": 5460,
            "do": 5461,
            "␣tun": 5462,
            "␣pants": 5463,
            "␣eleven": 5464,
            "␣desp": 5465,
            "␣Arab": 5466,
            "␣heat": 5467,
            "edy": 5468,
            "␣shown": 5469,
            "␣screw": 5470,
            "Peter": 5471,
            "␣closer": 5472,
            "␣evident": 5473,
            "␣female": 5474,
            "␣fixed": 5475,
            "␣remind": 5476,
            "␣firm": 5477,
            "nPe": 5478,
            "␣Church": 5479,
            "aa": 5480,
            "razil": 5481,
            "mo": 5482,
            "␣inqu": 5483,
            "anny": 5484,
            "␣teach": 5485,
            "ule": 5486,
            "␣pil": 5487,
            "␣lem": 5488,
            "␣Ire": 5489,
            "aving": 5490,
            "ourt": 5491,
            "␣determ": 5492,
            "ulf": 5493,
            "␣ninete": 5494,
            "␣prepared": 5495,
            "␣address": 5496,
            "␣Jose": 5497,
            "␣managed": 5498,
            "gress": 5499,
            "␣bat": 5500,
            "fly": 5501,
            "osta": 5502,
            "␣sour": 5503,
            "␣wheels": 5504,
            "␣claim": 5505,
            "ola": 5506,
            "gypt": 5507,
            "␣batter": 5508,
            "␣tongue": 5509,
            "rid": 5510,
            "ooh": 5511,
            "␣worried": 5512,
            "berg": 5513,
            "␣absolutely": 5514,
            "ittee": 5515,
            "␣bother": 5516,
            "ordon": 5517,
            "␣version": 5518,
            "nOur": 5519,
            "Come": 5520,
            "eff": 5521,
            "␣mult": 5522,
            "␣bub": 5523,
            "␣Charlie": 5524,
            "ez": 5525,
            "␣lap": 5526,
            "␣uhuh": 5527,
            "␣changes": 5528,
            "␣Ange": 5529,
            "erhaps": 5530,
            "␣Did": 5531,
            "␣enter": 5532,
            "␣Martin": 5533,
            "␣Their": 5534,
            "␣Jew": 5535,
            "␣vac": 5536,
            "oms": 5537,
            "␣People": 5538,
            "host": 5539,
            "␣loss": 5540,
            "ique": 5541,
            "␣pool": 5542,
            "␣Friday": 5543,
            "␣Every": 5544,
            "␣harm": 5545,
            "␣dare": 5546,
            "␣located": 5547,
            "␣quietly": 5548,
            "arliam": 5549,
            "looking": 5550,
            "␣medicine": 5551,
            "␣movement": 5552,
            "␣oo": 5553,
            "␣cousin": 5554,
            "␣bloody": 5555,
            "␣sandwich": 5556,
            "␣env": 5557,
            "␣director": 5558,
            "␣suggested": 5559,
            "nMar": 5560,
            "babbles": 5561,
            "␣bits": 5562,
            "␣Island": 5563,
            "␣pa": 5564,
            "␣Reg": 5565,
            "␣Flor": 5566,
            "HAT": 5567,
            "␣remained": 5568,
            "␣correct": 5569,
            "sing": 5570,
            "␣throat": 5571,
            "␣Adam": 5572,
            "ios": 5573,
            "␣sch": 5574,
            "␣drinking": 5575,
            "atin": 5576,
            "␣Bu": 5577,
            "␣everywhere": 5578,
            "␣carrying": 5579,
            "␣rate": 5580,
            "␣knee": 5581,
            "␣training": 5582,
            "␣Santa": 5583,
            "rig": 5584,
            "␣eld": 5585,
            "␣Africa": 5586,
            "␣craw": 5587,
            "␣Jud": 5588,
            "␣normal": 5589,
            "␣forgotten": 5590,
            "␣appre": 5591,
            "␣showing": 5592,
            "␣education": 5593,
            "␣oil": 5594,
            "␣impossible": 5595,
            "␣faces": 5596,
            "␣blind": 5597,
            "␣ta": 5598,
            "arliament": 5599,
            "isa": 5600,
            "␣emer": 5601,
            "␣kinds": 5602,
            "␣monster": 5603,
            "␣Beck": 5604,
            "arently": 5605,
            "CE": 5606,
            "␣shouted": 5607,
            "␣Spain": 5608,
            "lla": 5609,
            "␣BE": 5610,
            "␣softly": 5611,
            "␣generally": 5612,
            "␣price": 5613,
            "␣Dist": 5614,
            "␣finding": 5615,
            "wing": 5616,
            "␣cases": 5617,
            "␣disp": 5618,
            "␣mut": 5619,
            "ching": 5620,
            "lected": 5621,
            "␣weak": 5622,
            "␣trade": 5623,
            "ata": 5624,
            "␣Brazil": 5625,
            "␣Chinese": 5626,
            "aws": 5627,
            "␣bike": 5628,
            "␣province": 5629,
            "eping": 5630,
            "nVery": 5631,
            "␣peas": 5632,
            "ipper": 5633,
            "Ch": 5634,
            "␣electric": 5635,
            "␣pizza": 5636,
            "␣opportunity": 5637,
            "␣Award": 5638,
            "␣bin": 5639,
            "␣intern": 5640,
            "␣Ir": 5641,
            "eted": 5642,
            "wr": 5643,
            "urt": 5644,
            "␣dolly": 5645,
            "␣plans": 5646,
            "␣individ": 5647,
            "␣surface": 5648,
            "␣stayed": 5649,
            "aries": 5650,
            "␣fashion": 5651,
            "␣investig": 5652,
            "west": 5653,
            "illed": 5654,
            "␣pir": 5655,
            "␣Win": 5656,
            "␣speech": 5657,
            "nic": 5658,
            "iron": 5659,
            "ores": 5660,
            "␣falls": 5661,
            "␣Ned": 5662,
            "␣fourth": 5663,
            "␣magaz": 5664,
            "␣yyy": 5665,
            "␣Pal": 5666,
            "␣bal": 5667,
            "␣loves": 5668,
            "␣tie": 5669,
            "␣Sl": 5670,
            "␣grave": 5671,
            "icans": 5672,
            "␣whispered": 5673,
            "␣ancient": 5674,
            "␣avail": 5675,
            "␣duh": 5676,
            "␣Bear": 5677,
            "␣peek": 5678,
            "␣prim": 5679,
            "␣tent": 5680,
            "Let": 5681,
            "␣actress": 5682,
            "␣nurse": 5683,
            "␣Olympics": 5684,
            "␣mail": 5685,
            "nSure": 5686,
            "cing": 5687,
            "␣doors": 5688,
            "turn": 5689,
            "ari": 5690,
            "␣Egypt": 5691,
            "aft": 5692,
            "␣polic": 5693,
            "␣Jesus": 5694,
            "␣towel": 5695,
            "␣Rock": 5696,
            "nHer": 5697,
            "␣events": 5698,
            "␣rope": 5699,
            "␣associ": 5700,
            "␣rules": 5701,
            "␣proceed": 5702,
            "␣cred": 5703,
            "␣Wil": 5704,
            "␣celebr": 5705,
            "rees": 5706,
            "␣dread": 5707,
            "␣Wal": 5708,
            "␣Most": 5709,
            "nWas": 5710,
            "␣motion": 5711,
            "␣opin": 5712,
            "␣Mil": 5713,
            "␣brothers": 5714,
            "␣range": 5715,
            "␣product": 5716,
            "␣ninety": 5717,
            "iety": 5718,
            "␣sits": 5719,
            "␣practice": 5720,
            "onse": 5721,
            "ship": 5722,
            "␣Bonnet": 5723,
            "aled": 5724,
            "So": 5725,
            "␣liter": 5726,
            "␣rout": 5727,
            "␣balloon": 5728,
            "␣perm": 5729,
            "itional": 5730,
            "␣exec": 5731,
            "ademy": 5732,
            "chant": 5733,
            "␣prevent": 5734,
            "␣stands": 5735,
            "␣sixty": 5736,
            "da": 5737,
            "␣Mount": 5738,
            "␣leading": 5739,
            "GHT": 5740,
            "␣boats": 5741,
            "edding": 5742,
            "␣ships": 5743,
            "nGod": 5744,
            "fit": 5745,
            "␣obviously": 5746,
            "␣opposite": 5747,
            "␣offered": 5748,
            "lor": 5749,
            "␣percent": 5750,
            "␣microphone": 5751,
            "pre": 5752,
            "␣print": 5753,
            "␣boss": 5754,
            "␣saf": 5755,
            "␣stir": 5756,
            "␣Ken": 5757,
            "onday": 5758,
            "␣Dep": 5759,
            "orks": 5760,
            "␣Day": 5761,
            "rick": 5762,
            "␣crash": 5763,
            "sych": 5764,
            "␣heaven": 5765,
            "␣sees": 5766,
            "␣novel": 5767,
            "ker": 5768,
            "␣ourselves": 5769,
            "ims": 5770,
            "cream": 5771,
            "␣bisc": 5772,
            "␣pump": 5773,
            "␣upset": 5774,
            "␣according": 5775,
            "anche": 5776,
            "iana": 5777,
            "␣Max": 5778,
            "ni": 5779,
            "␣AM": 5780,
            "␣walls": 5781,
            "Th": 5782,
            "note": 5783,
            "␣helping": 5784,
            "␣sake": 5785,
            "␣contract": 5786,
            "worth": 5787,
            "␣uses": 5788,
            "olic": 5789,
            "␣Kore": 5790,
            "␣mountains": 5791,
            "␣Green": 5792,
            "icked": 5793,
            "␣shell": 5794,
            "␣doin": 5795,
            "oking": 5796,
            "␣Act": 5797,
            "ocrat": 5798,
            "␣smiled": 5799,
            "osh": 5800,
            "␣resc": 5801,
            "␣centre": 5802,
            "AK": 5803,
            "ials": 5804,
            "␣Eve": 5805,
            "␣Swed": 5806,
            "␣nineteen": 5807,
            "␣ox": 5808,
            "asy": 5809,
            "␣Prince": 5810,
            "␣appearance": 5811,
            "ented": 5812,
            "amn": 5813,
            "␣Two": 5814,
            "␣easier": 5815,
            "␣ladd": 5816,
            "␣bark": 5817,
            "␣alt": 5818,
            "␣council": 5819,
            "volution": 5820,
            "␣crime": 5821,
            "filler": 5822,
            "␣aver": 5823,
            "OTH": 5824,
            "␣studio": 5825,
            "␣condition": 5826,
            "␣clown": 5827,
            "izing": 5828,
            "␣suspect": 5829,
            "istic": 5830,
            "nNe": 5831,
            "␣reck": 5832,
            "ounce": 5833,
            "tering": 5834,
            "␣shook": 5835,
            "nPl": 5836,
            "␣glasses": 5837,
            "␣Franc": 5838,
            "␣neighbor": 5839,
            "irgin": 5840,
            "␣continue": 5841,
            "GR": 5842,
            "␣aunt": 5843,
            "␣extreme": 5844,
            "␣papers": 5845,
            "ache": 5846,
            "UK": 5847,
            "erc": 5848,
            "nods": 5849,
            "␣eaten": 5850,
            "␣decision": 5851,
            "cellent": 5852,
            "␣rights": 5853,
            "␣purs": 5854,
            "␣retired": 5855,
            "␣frightened": 5856,
            "␣dun": 5857,
            "lyn": 5858,
            "with": 5859,
            "␣vocal": 5860,
            "␣cy": 5861,
            "␣honor": 5862,
            "llen": 5863,
            "␣Mont": 5864,
            "useum": 5865,
            "␣brill": 5866,
            "GE": 5867,
            "arily": 5868,
            "␣younger": 5869,
            "ellig": 5870,
            "␣butt": 5871,
            "␣affect": 5872,
            "␣reply": 5873,
            "␣keeps": 5874,
            "den": 5875,
            "␣flo": 5876,
            "␣successful": 5877,
            "rie": 5878,
            "␣narrow": 5879,
            "␣histor": 5880,
            "␣marry": 5881,
            "␣bathroom": 5882,
            "␣shopping": 5883,
            "non": 5884,
            "aning": 5885,
            "␣Lady": 5886,
            "oos": 5887,
            "␣style": 5888,
            "nCos": 5889,
            "␣nap": 5890,
            "␣balls": 5891,
            "nOoh": 5892,
            "nGot": 5893,
            "␣marriage": 5894,
            "␣airpl": 5895,
            "␣students": 5896,
            "ification": 5897,
            "␣model": 5898,
            "␣Bessie": 5899,
            "␣possibly": 5900,
            "␣official": 5901,
            "␣cities": 5902,
            "␣desk": 5903,
            "␣0": 5904,
            "␣suc": 5905,
            "␣favour": 5906,
            "␣Dutch": 5907,
            "ii": 5908,
            "␣ign": 5909,
            "asing": 5910,
            "␣contact": 5911,
            "␣windows": 5912,
            "␣beep": 5913,
            "pill": 5914,
            "␣nursery": 5915,
            "rand": 5916,
            "␣evil": 5917,
            "␣ideas": 5918,
            "silence": 5919,
            "OS": 5920,
            "vest": 5921,
            "␣tim": 5922,
            "semb": 5923,
            "␣whist": 5924,
            "lig": 5925,
            "␣wa": 5926,
            "␣bomb": 5927,
            "␣chat": 5928,
            "␣holiday": 5929,
            "␣mentioned": 5930,
            "␣somewhat": 5931,
            "␣otherwise": 5932,
            "␣biggest": 5933,
            "␣anxious": 5934,
            "␣Rog": 5935,
            "␣willing": 5936,
            "␣explained": 5937,
            "␣bare": 5938,
            "␣der": 5939,
            "abeth": 5940,
            "␣comfortable": 5941,
            "␣mud": 5942,
            "␣washing": 5943,
            "␣award": 5944,
            "fection": 5945,
            "stood": 5946,
            "␣included": 5947,
            "nMrs": 5948,
            "␣Smith": 5949,
            "␣succeed": 5950,
            "␣bringing": 5951,
            "␣flew": 5952,
            "␣Republic": 5953,
            "␣settled": 5954,
            "bes": 5955,
            "␣Sus": 5956,
            "␣Master": 5957,
            "␣Del": 5958,
            "␣tar": 5959,
            "pany": 5960,
            "␣detect": 5961,
            "␣painting": 5962,
            "␣string": 5963,
            "␣wine": 5964,
            "␣bi": 5965,
            "book": 5966,
            "␣riding": 5967,
            "Where": 5968,
            "ota": 5969,
            "nthat": 5970,
            "␣odd": 5971,
            "␣directly": 5972,
            "␣forced": 5973,
            "␣coach": 5974,
            "inist": 5975,
            "␣poo": 5976,
            "␣definitely": 5977,
            "␣pencil": 5978,
            "␣fairly": 5979,
            "nPro": 5980,
            "␣waited": 5981,
            "orough": 5982,
            "␣neat": 5983,
            "␣schools": 5984,
            "ccording": 5985,
            "uits": 5986,
            "␣afterwards": 5987,
            "␣fence": 5988,
            "␣Gordon": 5989,
            "␣International": 5990,
            "icles": 5991,
            "ulous": 5992,
            "␣Sal": 5993,
            "␣zoo": 5994,
            "␣Mo": 5995,
            "␣Chan": 5996,
            "cely": 5997,
            "␣sav": 5998,
            "␣decide": 5999,
            "␣risk": 6000,
            "ooth": 6001,
            "␣beauty": 6002,
            "␣yup": 6003,
            "␣repeated": 6004,
            "␣studied": 6005,
            "␣circum": 6006,
            "␣developed": 6007,
            "␣Sea": 6008,
            "mend": 6009,
            "␣doc": 6010,
            "idding": 6011,
            "␣deb": 6012,
            "nCould": 6013,
            "␣une": 6014,
            "␣furn": 6015,
            "␣toil": 6016,
            "␣greatest": 6017,
            "ube": 6018,
            "boy": 6019,
            "␣kinda": 6020,
            "␣knowledge": 6021,
            "␣perfectly": 6022,
            "␣shel": 6023,
            "atory": 6024,
            "ogether": 6025,
            "␣particularly": 6026,
            "rant": 6027,
            "␣properly": 6028,
            "mn": 6029,
            "␣rust": 6030,
            "aterpill": 6031,
            "␣judge": 6032,
            "␣blanket": 6033,
            "␣stro": 6034,
            "␣poet": 6035,
            "␣silent": 6036,
            "␣male": 6037,
            "␣steal": 6038,
            "␣highest": 6039,
            "ini": 6040,
            "␣pages": 6041,
            "odes": 6042,
            "gent": 6043,
            "othy": 6044,
            "then": 6045,
            "isions": 6046,
            "␣larger": 6047,
            "eta": 6048,
            "␣Wind": 6049,
            "␣waste": 6050,
            "␣Ruth": 6051,
            "␣wise": 6052,
            "␣society": 6053,
            "␣tid": 6054,
            "ingu": 6055,
            "VER": 6056,
            "vert": 6057,
            "␣chest": 6058,
            "ech": 6059,
            "␣Alice": 6060,
            "␣hanging": 6061,
            "␣respond": 6062,
            "␣eighty": 6063,
            "␣horsie": 6064,
            "STE": 6065,
            "aly": 6066,
            "ootnote": 6067,
            "␣memory": 6068,
            "uf": 6069,
            "␣hook": 6070,
            "␣reb": 6071,
            "␣Sun": 6072,
            "␣dere": 6073,
            "␣remarked": 6074,
            "ste": 6075,
            "␣players": 6076,
            "iano": 6077,
            "␣wedding": 6078,
            "␣salt": 6079,
            "sequ": 6080,
            "imit": 6081,
            "␣prove": 6082,
            "␣Ray": 6083,
            "␣safety": 6084,
            "LI": 6085,
            "nSir": 6086,
            "␣Kat": 6087,
            "␣rings": 6088,
            "opher": 6089,
            "␣science": 6090,
            "␣mor": 6091,
            "␣wave": 6092,
            "␣mere": 6093,
            "␣Fin": 6094,
            "␣nomin": 6095,
            "fall": 6096,
            "␣FAT": 6097,
            "␣cong": 6098,
            "␣murd": 6099,
            "ockey": 6100,
            "␣knowing": 6101,
            "␣conv": 6102,
            "oday": 6103,
            "ictor": 6104,
            "␣swing": 6105,
            "nQu": 6106,
            "␣por": 6107,
            "␣horn": 6108,
            "␣cloth": 6109,
            "nTr": 6110,
            "␣Jer": 6111,
            "␣powerful": 6112,
            "␣escap": 6113,
            "sm": 6114,
            "␣disease": 6115,
            "␣cute": 6116,
            "asty": 6117,
            "␣pushed": 6118,
            "␣Play": 6119,
            "␣Chic": 6120,
            "␣writer": 6121,
            "␣teams": 6122,
            "␣lawyer": 6123,
            "␣rib": 6124,
            "␣metal": 6125,
            "␣feels": 6126,
            "␣mate": 6127,
            "fortun": 6128,
            "ses": 6129,
            "␣development": 6130,
            "␣text": 6131,
            "␣Emp": 6132,
            "␣knees": 6133,
            "␣performan": 6134,
            "␣hurried": 6135,
            "␣talks": 6136,
            "obody": 6137,
            "atoes": 6138,
            "␣weird": 6139,
            "␣manager": 6140,
            "␣Bay": 6141,
            "see": 6142,
            "␣arch": 6143,
            "acks": 6144,
            "␣thoughts": 6145,
            "␣worst": 6146,
            "␣Because": 6147,
            "this": 6148,
            "␣troub": 6149,
            "␣Boy": 6150,
            "ulty": 6151,
            "␣sposta": 6152,
            "JES": 6153,
            "␣barn": 6154,
            "␣knocked": 6155,
            "␣signed": 6156,
            "dro": 6157,
            "␣hug": 6158,
            "nBr": 6159,
            "␣meth": 6160,
            "road": 6161,
            "␣During": 6162,
            "umps": 6163,
            "␣vote": 6164,
            "␣Army": 6165,
            "adian": 6166,
            "␣fund": 6167,
            "␣doggie": 6168,
            "␣cats": 6169,
            "␣cancer": 6170,
            "mark": 6171,
            "␣boots": 6172,
            "␣mission": 6173,
            "␣states": 6174,
            "iling": 6175,
            "␣Bern": 6176,
            "␣castle": 6177,
            "amps": 6178,
            "␣burst": 6179,
            "Who": 6180,
            "itar": 6181,
            "␣thrown": 6182,
            "␣response": 6183,
            "place": 6184,
            "␣sink": 6185,
            "rael": 6186,
            "␣afford": 6187,
            "ilies": 6188,
            "␣tractor": 6189,
            "␣services": 6190,
            "␣shock": 6191,
            "␣research": 6192,
            "␣cit": 6193,
            "␣tummy": 6194,
            "␣passing": 6195,
            "␣appreci": 6196,
            "␣gentlemen": 6197,
            "␣Monday": 6198,
            "holds": 6199,
            "␣yay": 6200,
            "␣produc": 6201,
            "␣farmer": 6202,
            "isher": 6203,
            "␣mel": 6204,
            "␣Lake": 6205,
            "nFuck": 6206,
            "␣wings": 6207,
            "␣fancy": 6208,
            "ussy": 6209,
            "␣soldier": 6210,
            "␣Law": 6211,
            "␣Lara": 6212,
            "rows": 6213,
            "␣gay": 6214,
            "ba": 6215,
            "␣Ver": 6216,
            "␣smiling": 6217,
            "ban": 6218,
            "␣effort": 6219,
            "␣Gar": 6220,
            "␣elected": 6221,
            "nOnly": 6222,
            "nbut": 6223,
            "␣concerned": 6224,
            "␣realize": 6225,
            "␣Indians": 6226,
            "pering": 6227,
            "nDe": 6228,
            "␣fought": 6229,
            "ram": 6230,
            "␣disappeared": 6231,
            "␣available": 6232,
            "bits": 6233,
            "␣remembered": 6234,
            "␣keys": 6235,
            "uments": 6236,
            "␣hearing": 6237,
            "␣fired": 6238,
            "␣nope": 6239,
            "␣related": 6240,
            "sec": 6241,
            "␣Des": 6242,
            "inda": 6243,
            "␣serve": 6244,
            "ansas": 6245,
            "␣latter": 6246,
            "␣invent": 6247,
            "␣Chris": 6248,
            "ipping": 6249,
            "ading": 6250,
            "␣bod": 6251,
            "gn": 6252,
            "␣matters": 6253,
            "izabeth": 6254,
            "hum": 6255,
            "␣brilliant": 6256,
            "itan": 6257,
            "␣thin": 6258,
            "icking": 6259,
            "year": 6260,
            "␣wished": 6261,
            "␣soup": 6262,
            "␣Rose": 6263,
            "␣Jones": 6264,
            "nPeople": 6265,
            "Good": 6266,
            "␣opens": 6267,
            "ona": 6268,
            "␣debut": 6269,
            "␣Rome": 6270,
            "oned": 6271,
            "CT": 6272,
            "etch": 6273,
            "␣ME": 6274,
            "Al": 6275,
            "␣Super": 6276,
            "aign": 6277,
            "␣prefer": 6278,
            "iggles": 6279,
            "chief": 6280,
            "bey": 6281,
            "␣international": 6282,
            "␣pra": 6283,
            "alled": 6284,
            "␣feelings": 6285,
            "␣goal": 6286,
            "␣cooking": 6287,
            "␣Florida": 6288,
            "␣Fort": 6289,
            "inc": 6290,
            "nGe": 6291,
            "␣throwing": 6292,
            "␣value": 6293,
            "␣CO": 6294,
            "thur": 6295,
            "␣ahhah": 6296,
            "␣Academy": 6297,
            "ironment": 6298,
            "they": 6299,
            "␣opinion": 6300,
            "␣wondering": 6301,
            "␣pressure": 6302,
            "␣Ah": 6303,
            "␣Marg": 6304,
            "␣veget": 6305,
            "gers": 6306,
            "␣mo": 6307,
            "icate": 6308,
            "␣reve": 6309,
            "ENT": 6310,
            "war": 6311,
            "␣pred": 6312,
            "␣cheek": 6313,
            "␣drawn": 6314,
            "␣fart": 6315,
            "␣socks": 6316,
            "␣languages": 6317,
            "␣shoulders": 6318,
            "␣sen": 6319,
            "win": 6320,
            "␣rare": 6321,
            "␣greater": 6322,
            "iliar": 6323,
            "nPut": 6324,
            "␣tied": 6325,
            "aming": 6326,
            "achel": 6327,
            "␣Chief": 6328,
            "ishment": 6329,
            "␣dism": 6330,
            "upp": 6331,
            "hell": 6332,
            "obile": 6333,
            "␣Post": 6334,
            "␣Mass": 6335,
            "␣Wood": 6336,
            "apt": 6337,
            "ension": 6338,
            "imate": 6339,
            "peror": 6340,
            "␣psych": 6341,
            "␣clearly": 6342,
            "␣native": 6343,
            "␣forces": 6344,
            "ELL": 6345,
            "itzer": 6346,
            "␣Thank": 6347,
            "␣Prov": 6348,
            "hanks": 6349,
            "␣failed": 6350,
            "␣Joseph": 6351,
            "␣dozen": 6352,
            "␣Greek": 6353,
            "␣fishing": 6354,
            "␣property": 6355,
            "␣Royal": 6356,
            "␣gently": 6357,
            "␣loose": 6358,
            "␣aft": 6359,
            "␣arrange": 6360,
            "␣drove": 6361,
            "␣fully": 6362,
            "nyeah": 6363,
            "ients": 6364,
            "␣IS": 6365,
            "urry": 6366,
            "␣Pet": 6367,
            "␣gat": 6368,
            "␣Even": 6369,
            "␣mile": 6370,
            "␣Dis": 6371,
            "␣weeke": 6372,
            "␣foc": 6373,
            "gency": 6374,
            "yan": 6375,
            "␣beast": 6376,
            "ological": 6377,
            "␣wipe": 6378,
            "␣stom": 6379,
            "␣aware": 6380,
            "␣garage": 6381,
            "whispers": 6382,
            "␣average": 6383,
            "␣advant": 6384,
            "bow": 6385,
            "rate": 6386,
            "␣Sov": 6387,
            "␣nerv": 6388,
            "␣troops": 6389,
            "␣voices": 6390,
            "craft": 6391,
            "␣qual": 6392,
            "zzz": 6393,
            "␣Ellie": 6394,
            "␣toes": 6395,
            "uns": 6396,
            "␣presence": 6397,
            "␣airplane": 6398,
            "␣site": 6399,
            "␣staff": 6400,
            "gain": 6401,
            "FA": 6402,
            "␣previous": 6403,
            "onder": 6404,
            "␣material": 6405,
            "␣gather": 6406,
            "BC": 6407,
            "␣cookies": 6408,
            "␣acting": 6409,
            "␣positive": 6410,
            "␣faster": 6411,
            "␣relationship": 6412,
            "uan": 6413,
            "␣Mike": 6414,
            "␣joke": 6415,
            "␣express": 6416,
            "sed": 6417,
            "␣plat": 6418,
            "␣Australian": 6419,
            "␣pulling": 6420,
            "␣touched": 6421,
            "␣Cong": 6422,
            "␣cock": 6423,
            "May": 6424,
            "azed": 6425,
            "␣Chicago": 6426,
            "␣friendly": 6427,
            "vo": 6428,
            "␣Western": 6429,
            "bird": 6430,
            "␣Other": 6431,
            "␣drops": 6432,
            "␣patient": 6433,
            "An": 6434,
            "␣crayons": 6435,
            "nUm": 6436,
            "nAlright": 6437,
            "ctors": 6438,
            "␣frequ": 6439,
            "␣Mexico": 6440,
            "␣reported": 6441,
            "␣sum": 6442,
            "␣northern": 6443,
            "␣byeb": 6444,
            "␣Russia": 6445,
            "sters": 6446,
            "ropical": 6447,
            "␣FOR": 6448,
            "␣THAT": 6449,
            "␣determined": 6450,
            "␣theory": 6451,
            "␣Den": 6452,
            "␣saus": 6453,
            "␣arg": 6454,
            "␣Get": 6455,
            "␣episode": 6456,
            "␣dying": 6457,
            "␣distribut": 6458,
            "␣expression": 6459,
            "␣Ireland": 6460,
            "␣buried": 6461,
            "␣release": 6462,
            "␣District": 6463,
            "ga": 6464,
            "␣boxes": 6465,
            "␣rank": 6466,
            "␣expens": 6467,
            "␣queen": 6468,
            "␣fold": 6469,
            "␣cris": 6470,
            "ilities": 6471,
            "␣objects": 6472,
            "reedom": 6473,
            "lear": 6474,
            "␣Pak": 6475,
            "␣Israel": 6476,
            "␣College": 6477,
            "␣magnet": 6478,
            "ware": 6479,
            "␣DO": 6480,
            "␣plastic": 6481,
            "␣Lo": 6482,
            "tained": 6483,
            "␣terr": 6484,
            "␣entirely": 6485,
            "oma": 6486,
            "␣quack": 6487,
            "␣travell": 6488,
            "␣artist": 6489,
            "␣mirror": 6490,
            "unts": 6491,
            "␣exerc": 6492,
            "vy": 6493,
            "␣caterpill": 6494,
            "␣yard": 6495,
            "␣ends": 6496,
            "␣African": 6497,
            "␣witness": 6498,
            "␣cups": 6499,
            "␣central": 6500,
            "␣Look": 6501,
            "ights": 6502,
            "␣figures": 6503,
            "␣fan": 6504,
            "␣forever": 6505,
            "␣signal": 6506,
            "␣damn": 6507,
            "nCom": 6508,
            "␣instant": 6509,
            "␣jumping": 6510,
            "␣types": 6511,
            "␣Major": 6512,
            "␣Res": 6513,
            "␣realized": 6514,
            "␣excit": 6515,
            "␣pointing": 6516,
            "␣described": 6517,
            "␣stones": 6518,
            "␣becoming": 6519,
            "quar": 6520,
            "␣includes": 6521,
            "␣fond": 6522,
            "nAm": 6523,
            "nHold": 6524,
            "appy": 6525,
            "␣prepar": 6526,
            "aging": 6527,
            "bury": 6528,
            "␣zzz": 6529,
            "␣excellent": 6530,
            "␣comment": 6531,
            "␣yummy": 6532,
            "␣libr": 6533,
            "␣veh": 6534,
            "ION": 6535,
            "nDr": 6536,
            "␣ocean": 6537,
            "␣pulls": 6538,
            "ocratic": 6539,
            "␣puppy": 6540,
            "tt": 6541,
            "␣pointed": 6542,
            "ias": 6543,
            "fa": 6544,
            "␣ghost": 6545,
            "␣byebye": 6546,
            "igned": 6547,
            "vis": 6548,
            "␣wid": 6549,
            "␣bunch": 6550,
            "␣More": 6551,
            "␣See": 6552,
            "␣Po": 6553,
            "␣staying": 6554,
            "␣establ": 6555,
            "ella": 6556,
            "isha": 6557,
            "␣mixed": 6558,
            "oving": 6559,
            "␣icecream": 6560,
            "esty": 6561,
            "␣shooting": 6562,
            "riend": 6563,
            "␣Sing": 6564,
            "ila": 6565,
            "␣trains": 6566,
            "␣carriage": 6567,
            "␣Art": 6568,
            "␣Atl": 6569,
            "nNever": 6570,
            "␣darkness": 6571,
            "␣Haw": 6572,
            "essed": 6573,
            "␣Cath": 6574,
            "␣giant": 6575,
            "␣rom": 6576,
            "␣Kim": 6577,
            "␣Prime": 6578,
            "hh": 6579,
            "␣sports": 6580,
            "angle": 6581,
            "was": 6582,
            "␣damage": 6583,
            "␣mumm": 6584,
            "␣reasons": 6585,
            "nTom": 6586,
            "␣university": 6587,
            "aze": 6588,
            "␣maid": 6589,
            "␣cutting": 6590,
            "lam": 6591,
            "␣understood": 6592,
            "␣families": 6593,
            "car": 6594,
            "␣gift": 6595,
            "␣observed": 6596,
            "␣minister": 6597,
            "␣Lab": 6598,
            "isco": 6599,
            "nMom": 6600,
            "␣ladder": 6601,
            "␣Da": 6602,
            "␣wore": 6603,
            "␣jigs": 6604,
            "␣folks": 6605,
            "␣circumst": 6606,
            "␣lies": 6607,
            "pir": 6608,
            "berries": 6609,
            "␣pic": 6610,
            "␣Bart": 6611,
            "␣crown": 6612,
            "␣familiar": 6613,
            "␣gathered": 6614,
            "␣tip": 6615,
            "␣waves": 6616,
            "␣degree": 6617,
            "␣diam": 6618,
            "ential": 6619,
            "␣km": 6620,
            "orter": 6621,
            "␣aside": 6622,
            "atsy": 6623,
            "␣stranger": 6624,
            "dad": 6625,
            "␣aye": 6626,
            "nBye": 6627,
            "␣newspaper": 6628,
            "␣stops": 6629,
            "␣Governor": 6630,
            "sung": 6631,
            "␣Scotland": 6632,
            "ieutenant": 6633,
            "␣apparently": 6634,
            "nBefore": 6635,
            "␣task": 6636,
            "␣butterfly": 6637,
            "␣doggy": 6638,
            "␣boom": 6639,
            "␣paying": 6640,
            "␣sore": 6641,
            "illing": 6642,
            "ulations": 6643,
            "␣southern": 6644,
            "cel": 6645,
            "␣characters": 6646,
            "␣Far": 6647,
            "␣activity": 6648,
            "␣advice": 6649,
            "␣Canadian": 6650,
            "␣forms": 6651,
            "␣pros": 6652,
            "nFirst": 6653,
            "␣hunt": 6654,
            "innie": 6655,
            "␣sport": 6656,
            "␣leaf": 6657,
            "␣entertain": 6658,
            "usic": 6659,
            "␣Soviet": 6660,
            "␣Lin": 6661,
            "enced": 6662,
            "␣campaign": 6663,
            "␣mamma": 6664,
            "␣companion": 6665,
            "osition": 6666,
            "␣Irish": 6667,
            "␣yards": 6668,
            "␣excitement": 6669,
            "␣policy": 6670,
            "␣Secret": 6671,
            "␣Central": 6672,
            "␣dump": 6673,
            "␣rise": 6674,
            "␣perform": 6675,
            "␣Los": 6676,
            "␣extend": 6677,
            "␣Ty": 6678,
            "␣vent": 6679,
            "␣hidden": 6680,
            "␣Bea": 6681,
            "␣security": 6682,
            "␣Barb": 6683,
            "␣screen": 6684,
            "␣Virgin": 6685,
            "ROZ": 6686,
            "ifle": 6687,
            "␣throughout": 6688,
            "␣matches": 6689,
            "␣distur": 6690,
            "␣slept": 6691,
            "␣magazine": 6692,
            "␣inha": 6693,
            "␣locked": 6694,
            "␣shame": 6695,
            "HER": 6696,
            "oston": 6697,
            "␣horrible": 6698,
            "␣ast": 6699,
            "␣fac": 6700,
            "Here": 6701,
            "nSe": 6702,
            "␣tom": 6703,
            "␣desper": 6704,
            "␣susp": 6705,
            "␣Pen": 6706,
            "␣pean": 6707,
            "␣amazing": 6708,
            "nKeep": 6709,
            "EW": 6710,
            "␣surely": 6711,
            "ocks": 6712,
            "␣moo": 6713,
            "␣Gab": 6714,
            "neath": 6715,
            "␣Hi": 6716,
            "␣desire": 6717,
            "␣sword": 6718,
            "␣receive": 6719,
            "␣tooth": 6720,
            "␣communic": 6721,
            "nEverything": 6722,
            "␣Championship": 6723,
            "␣wrest": 6724,
            "vocalize": 6725,
            "␣western": 6726,
            "␣Saint": 6727,
            "nThree": 6728,
            "␣meas": 6729,
            "␣Ron": 6730,
            "nAbout": 6731,
            "␣courage": 6732,
            "␣Jeff": 6733,
            "␣planet": 6734,
            "␣Prof": 6735,
            "␣picking": 6736,
            "␣candy": 6737,
            "␣champions": 6738,
            "␣holes": 6739,
            "ima": 6740,
            "␣partner": 6741,
            "␣totally": 6742,
            "␣innoc": 6743,
            "ua": 6744,
            "␣killing": 6745,
            "␣fairy": 6746,
            "␣Fire": 6747,
            "␣lone": 6748,
            "␣slightly": 6749,
            "␣administ": 6750,
            "␣wooden": 6751,
            "␣CH": 6752,
            "␣dish": 6753,
            "␣gray": 6754,
            "␣symp": 6755,
            "␣hammer": 6756,
            "␣copy": 6757,
            "␣destroyed": 6758,
            "down": 6759,
            "avy": 6760,
            "␣effects": 6761,
            "␣Empire": 6762,
            "␣yo": 6763,
            "␣spr": 6764,
            "cod": 6765,
            "␣Os": 6766,
            "␣wondered": 6767,
            "␣Sil": 6768,
            "aboo": 6769,
            "␣Ter": 6770,
            "␣Squ": 6771,
            "␣buildings": 6772,
            "umper": 6773,
            "␣tough": 6774,
            "nThose": 6775,
            "␣fox": 6776,
            "␣magn": 6777,
            "␣sweetheart": 6778,
            "iance": 6779,
            "␣tickle": 6780,
            "␣pow": 6781,
            "␣Victor": 6782,
            "nJohn": 6783,
            "gly": 6784,
            "␣squee": 6785,
            "␣trunk": 6786,
            "␣besides": 6787,
            "␣fier": 6788,
            "ederal": 6789,
            "␣Andy": 6790,
            "␣rear": 6791,
            "iverse": 6792,
            "ppy": 6793,
            "ishop": 6794,
            "␣separate": 6795,
            "␣recorded": 6796,
            "AI": 6797,
            "␣Bird": 6798,
            "␣Hill": 6799,
            "␣constit": 6800,
            "␣recently": 6801,
            "␣phil": 6802,
            "nChe": 6803,
            "apping": 6804,
            "EM": 6805,
            "nZ": 6806,
            "␣rang": 6807,
            "aining": 6808,
            "nGreat": 6809,
            "␣chairs": 6810,
            "law": 6811,
            "hess": 6812,
            "sighs": 6813,
            "␣ess": 6814,
            "␣owner": 6815,
            "␣recorder": 6816,
            "␣Sol": 6817,
            "␣channel": 6818,
            "␣measure": 6819,
            "␣useful": 6820,
            "ooper": 6821,
            "␣issue": 6822,
            "hand": 6823,
            "rang": 6824,
            "via": 6825,
            "nDad": 6826,
            "␣Van": 6827,
            "␣bitch": 6828,
            "␣listened": 6829,
            "␣Steve": 6830,
            "ja": 6831,
            "␣stepped": 6832,
            "␣currently": 6833,
            "␣spite": 6834,
            "␣owned": 6835,
            "␣curious": 6836,
            "uesday": 6837,
            "␣proved": 6838,
            "␣feather": 6839,
            "␣treasure": 6840,
            "␣foreign": 6841,
            "␣medical": 6842,
            "igan": 6843,
            "␣Hon": 6844,
            "␣frogs": 6845,
            "␣weekend": 6846,
            "ado": 6847,
            "mes": 6848,
            "␣lifted": 6849,
            "nWow": 6850,
            "nSince": 6851,
            "emember": 6852,
            "␣Americans": 6853,
            "␣mainly": 6854,
            "itzerland": 6855,
            "␣active": 6856,
            "␣instr": 6857,
            "␣Cast": 6858,
            "␣grandma": 6859,
            "␣encour": 6860,
            "␣goat": 6861,
            "␣progress": 6862,
            "odd": 6863,
            "␣honour": 6864,
            "␣statistics": 6865,
            "␣interview": 6866,
            "␣symb": 6867,
            "␣Edward": 6868,
            "esides": 6869,
            "␣init": 6870,
            "␣score": 6871,
            "aval": 6872,
            "␣contr": 6873,
            "␣bricks": 6874,
            "␣citiz": 6875,
            "za": 6876,
            "␣Pop": 6877,
            "nGu": 6878,
            "␣helps": 6879,
            "met": 6880,
            "sk": 6881,
            "␣Rh": 6882,
            "␣jail": 6883,
            "␣banana": 6884,
            "␣streets": 6885,
            "␣Dar": 6886,
            "ested": 6887,
            "␣formula": 6888,
            "␣Jimmie": 6889,
            "␣breaking": 6890,
            "␣established": 6891,
            "␣FI": 6892,
            "␣prisoners": 6893,
            "ault": 6894,
            "␣toilet": 6895,
            "CA": 6896,
            "␣Jimmy": 6897,
            "␣performed": 6898,
            "␣craft": 6899,
            "␣lorry": 6900,
            "␣Nick": 6901,
            "␣instru": 6902,
            "␣Have": 6903,
            "heast": 6904,
            "␣Pooh": 6905,
            "␣terror": 6906,
            "␣rapidly": 6907,
            "urance": 6908,
            "␣patter": 6909,
            "␣Roger": 6910,
            "␣clouds": 6911,
            "umble": 6912,
            "␣trous": 6913,
            "␣Angeles": 6914,
            "␣burning": 6915,
            "nAct": 6916,
            "␣creature": 6917,
            "␣Syl": 6918,
            "␣Fox": 6919,
            "␣Like": 6920,
            "water": 6921,
            "voc": 6922,
            "␣traffic": 6923,
            "␣wounded": 6924,
            "␣hes": 6925,
            "hib": 6926,
            "anches": 6927,
            "␣sorts": 6928,
            "untary": 6929,
            "itcher": 6930,
            "while": 6931,
            "␣Tw": 6932,
            "␣sisters": 6933,
            "ursday": 6934,
            "␣strike": 6935,
            "nc": 6936,
            "nMiss": 6937,
            "␣Switzerland": 6938,
            "␣Ba": 6939,
            "␣AN": 6940,
            "Be": 6941,
            "␣Prin": 6942,
            "␣divided": 6943,
            "nX": 6944,
            "␣rush": 6945,
            "␣branch": 6946,
            "␣mama": 6947,
            "␣arran": 6948,
            "␣influence": 6949,
            "nto": 6950,
            "␣removed": 6951,
            "␣enjoyed": 6952,
            "ANT": 6953,
            "␣laws": 6954,
            "␣tear": 6955,
            "␣Mos": 6956,
            "␣underneath": 6957,
            "arts": 6958,
            "␣bodies": 6959,
            "inal": 6960,
            "␣data": 6961,
            "␣sole": 6962,
            "nAye": 6963,
            "␣autom": 6964,
            "␣environment": 6965,
            "erves": 6966,
            "bel": 6967,
            "␣weapons": 6968,
            "amin": 6969,
            "uries": 6970,
            "nYOU": 6971,
            "␣spo": 6972,
            "␣drama": 6973,
            "␣becomes": 6974,
            "␣companies": 6975,
            "icing": 6976,
            "reck": 6977,
            "␣achie": 6978,
            "␣Mur": 6979,
            "osen": 6980,
            "␣upper": 6981,
            "␣Mars": 6982,
            "␣handsome": 6983,
            "␣Rec": 6984,
            "ati": 6985,
            "␣nervous": 6986,
            "␣Ted": 6987,
            "␣Dada": 6988,
            "␣queer": 6989,
            "␣seventy": 6990,
            "␣Corn": 6991,
            "␣scarcely": 6992,
            "tin": 6993,
            "␣Hal": 6994,
            "umn": 6995,
            "anchester": 6996,
            "␣wra": 6997,
            "␣landed": 6998,
            "␣performance": 6999,
            "␣etc": 7000,
            "ares": 7001,
            "␣recording": 7002,
            "␣habit": 7003,
            "enth": 7004,
            "␣chips": 7005,
            "␣jacket": 7006,
            "␣Div": 7007,
            "␣normally": 7008,
            "aus": 7009,
            "making": 7010,
            "peech": 7011,
            "␣ours": 7012,
            "␣purse": 7013,
            "␣gradu": 7014,
            "␣features": 7015,
            "␣evidently": 7016,
            "␣blame": 7017,
            "nJack": 7018,
            "␣difficulty": 7019,
            "␣gir": 7020,
            "␣dreams": 7021,
            "Did": 7022,
            "␣washed": 7023,
            "␣credit": 7024,
            "␣section": 7025,
            "␣Zeal": 7026,
            "␣Boston": 7027,
            "␣shower": 7028,
            "␣towns": 7029,
            "␣couch": 7030,
            "ano": 7031,
            "␣Court": 7032,
            "␣oblig": 7033,
            "␣dunno": 7034,
            "Of": 7035,
            "␣invited": 7036,
            "␣transl": 7037,
            "␣stomach": 7038,
            "erk": 7039,
            "␣bags": 7040,
            "␣Latin": 7041,
            "␣Pakistan": 7042,
            "ands": 7043,
            "aren": 7044,
            "␣glance": 7045,
            "␣Val": 7046,
            "␣AMY": 7047,
            "nine": 7048,
            "␣mummie": 7049,
            "ication": 7050,
            "␣restaur": 7051,
            "␣doo": 7052,
            "iece": 7053,
            "␣liber": 7054,
            "␣beneath": 7055,
            "LAU": 7056,
            "EE": 7057,
            "␣pale": 7058,
            "usted": 7059,
            "␣jigsaw": 7060,
            "␣Hot": 7061,
            "␣adop": 7062,
            "engers": 7063,
            "␣aer": 7064,
            "AND": 7065,
            "␣learning": 7066,
            "estival": 7067,
            "␣mort": 7068,
            "␣somehow": 7069,
            "␣colour": 7070,
            "␣bon": 7071,
            "␣create": 7072,
            "␣Rom": 7073,
            "␣tender": 7074,
            "␣hunting": 7075,
            "␣greatly": 7076,
            "␣awake": 7077,
            "UST": 7078,
            "nin": 7079,
            "␣faint": 7080,
            "␣competed": 7081,
            "␣nearer": 7082,
            "␣eats": 7083,
            "fish": 7084,
            "␣whee": 7085,
            "␣While": 7086,
            "IK": 7087,
            "␣golden": 7088,
            "␣Zealand": 7089,
            "␣rolling": 7090,
            "ednes": 7091,
            "␣fields": 7092,
            "ilty": 7093,
            "chuckles": 7094,
            "␣student": 7095,
            "␣sticks": 7096,
            "␣sweetie": 7097,
            "␣apartment": 7098,
            "␣unus": 7099,
            "ailed": 7100,
            "aring": 7101,
            "␣advantage": 7102,
            "When": 7103,
            "␣soap": 7104,
            "␣splend": 7105,
            "turns": 7106,
            "␣review": 7107,
            "umed": 7108,
            "thew": 7109,
            "III": 7110,
            "␣bone": 7111,
            "actually": 7112,
            "␣presently": 7113,
            "␣exciting": 7114,
            "ds": 7115,
            "␣ben": 7116,
            "␣Britain": 7117,
            "␣Elizabeth": 7118,
            "␣caterpillar": 7119,
            "␣bears": 7120,
            "␣Women": 7121,
            "pointing": 7122,
            "␣spider": 7123,
            "␣Met": 7124,
            "␣deliver": 7125,
            "coughs": 7126,
            "␣bones": 7127,
            "␣nation": 7128,
            "␣closely": 7129,
            "␣map": 7130,
            "␣pony": 7131,
            "␣territ": 7132,
            "␣raise": 7133,
            "␣baseball": 7134,
            "ednesday": 7135,
            "␣trial": 7136,
            "␣target": 7137,
            "␣cows": 7138,
            "inned": 7139,
            "␣rooms": 7140,
            "Ar": 7141,
            "␣lord": 7142,
            "␣alarm": 7143,
            "␣responsible": 7144,
            "nEarly": 7145,
            "inson": 7146,
            "␣hills": 7147,
            "␣unknown": 7148,
            "EV": 7149,
            "␣wire": 7150,
            "␣equal": 7151,
            "␣cash": 7152,
            "␣desce": 7153,
            "␣Best": 7154,
            "␣pond": 7155,
            "nSp": 7156,
            "nOther": 7157,
            "␣experien": 7158,
            "nLea": 7159,
            "nSomething": 7160,
            "␣Star": 7161,
            "␣Brian": 7162,
            "␣Arthur": 7163,
            "iation": 7164,
            "␣lou": 7165,
            "zer": 7166,
            "igator": 7167,
            "␣planning": 7168,
            "low": 7169,
            "␣drunk": 7170,
            "␣trousers": 7171,
            "␣resist": 7172,
            "␣prize": 7173,
            "␣Parliament": 7174,
            "␣princess": 7175,
            "␣engaged": 7176,
            "␣borrow": 7177,
            "␣losing": 7178,
            "ST": 7179,
            "␣Les": 7180,
            "nBet": 7181,
            "␣folk": 7182,
            "␣border": 7183,
            "istry": 7184,
            "␣slipped": 7185,
            "␣treated": 7186,
            "␣fortune": 7187,
            "␣lack": 7188,
            "␣production": 7189,
            "␣specific": 7190,
            "rose": 7191,
            "␣results": 7192,
            "sell": 7193,
            "␣branches": 7194,
            "nIsn": 7195,
            "␣leaders": 7196,
            "ann": 7197,
            "kee": 7198,
            "␣drown": 7199,
            "␣merry": 7200,
            "␣rushed": 7201,
[...]
